{
  "version": "1.0",
  "truncation": null,
  "padding": null,
  "added_tokens": [
    {
      "id": 0,
      "content": "<pad>",
      "single_word": false,
      "lstrip": false,
      "rstrip": false,
      "normalized": false,
      "special": true
    },
    {
      "id": 1,
      "content": "<bos>",
      "single_word": false,
      "lstrip": false,
      "rstrip": false,
      "normalized": false,
      "special": true
    },
    {
      "id": 2,
      "content": "<eos>",
      "single_word": false,
      "lstrip": false,
      "rstrip": false,
      "normalized": false,
      "special": true
    },
    {
      "id": 3,
      "content": "<unk>",
      "single_word": false,
      "lstrip": false,
      "rstrip": false,
      "normalized": false,
      "special": true
    }
  ],
  "normalizer": null,
  "pre_tokenizer": {
    "type": "ByteLevel",
    "add_prefix_space": true,
    "trim_offsets": true,
    "use_regex": true
  },
  "post_processor": null,
  "decoder": {
    "type": "ByteLevel",
    "add_prefix_space": true,
    "trim_offsets": true,
    "use_regex": true
  },
  "model": {
    "type": "BPE",
    "dropout": null,
    "unk_token": "[UNK]",
    "continuing_subword_prefix": null,
    "end_of_word_suffix": null,
    "fuse_unk": false,
    "byte_fallback": false,
    "ignore_merges": false,
    "vocab": {
      "<pad>": 0,
      "<bos>": 1,
      "<eos>": 2,
      "<unk>": 3,
      "!": 4,
      "\"": 5,
      "#": 6,
      "$": 7,
      "%": 8,
      "&": 9,
      "'": 10,
      "(": 11,
      ")": 12,
      "*": 13,
      "+": 14,
      ",": 15,
      "-": 16,
      ".": 17,
      "/": 18,
      "0": 19,
      "1": 20,
      "2": 21,
      "3": 22,
      "4": 23,
      "5": 24,
      "6": 25,
      "7": 26,
      "8": 27,
      "9": 28,
      ":": 29,
      ";": 30,
      "<": 31,
      "=": 32,
      ">": 33,
      "?": 34,
      "@": 35,
      "A": 36,
      "B": 37,
      "C": 38,
      "D": 39,
      "E": 40,
      "F": 41,
      "G": 42,
      "H": 43,
      "I": 44,
      "J": 45,
      "K": 46,
      "L": 47,
      "M": 48,
      "N": 49,
      "O": 50,
      "P": 51,
      "Q": 52,
      "R": 53,
      "S": 54,
      "T": 55,
      "U": 56,
      "V": 57,
      "W": 58,
      "X": 59,
      "Y": 60,
      "Z": 61,
      "[": 62,
      "\\": 63,
      "]": 64,
      "^": 65,
      "_": 66,
      "`": 67,
      "a": 68,
      "b": 69,
      "c": 70,
      "d": 71,
      "e": 72,
      "f": 73,
      "g": 74,
      "h": 75,
      "i": 76,
      "j": 77,
      "k": 78,
      "l": 79,
      "m": 80,
      "n": 81,
      "o": 82,
      "p": 83,
      "q": 84,
      "r": 85,
      "s": 86,
      "t": 87,
      "u": 88,
      "v": 89,
      "w": 90,
      "x": 91,
      "y": 92,
      "z": 93,
      "|": 94,
      "~": 95,
      "¡": 96,
      "¢": 97,
      "£": 98,
      "¤": 99,
      "¥": 100,
      "¦": 101,
      "§": 102,
      "¨": 103,
      "©": 104,
      "ª": 105,
      "«": 106,
      "¬": 107,
      "®": 108,
      "¯": 109,
      "°": 110,
      "±": 111,
      "²": 112,
      "³": 113,
      "´": 114,
      "¶": 115,
      "¸": 116,
      "¹": 117,
      "º": 118,
      "»": 119,
      "¼": 120,
      "½": 121,
      "¾": 122,
      "¿": 123,
      "Â": 124,
      "Ã": 125,
      "Ä": 126,
      "Å": 127,
      "Ë": 128,
      "×": 129,
      "â": 130,
      "ã": 131,
      "æ": 132,
      "ç": 133,
      "é": 134,
      "ê": 135,
      "ë": 136,
      "ì": 137,
      "í": 138,
      "ï": 139,
      "Ċ": 140,
      "Ġ": 141,
      "Ģ": 142,
      "ģ": 143,
      "Ĥ": 144,
      "ĥ": 145,
      "Ħ": 146,
      "ħ": 147,
      "Ĩ": 148,
      "Ī": 149,
      "ī": 150,
      "Ĭ": 151,
      "ĭ": 152,
      "Į": 153,
      "į": 154,
      "İ": 155,
      "ı": 156,
      "Ĳ": 157,
      "ĳ": 158,
      "Ĵ": 159,
      "ĵ": 160,
      "Ķ": 161,
      "ķ": 162,
      "ĸ": 163,
      "Ĺ": 164,
      "ĺ": 165,
      "Ļ": 166,
      "ļ": 167,
      "Ľ": 168,
      "ľ": 169,
      "Ŀ": 170,
      "ŀ": 171,
      "Ł": 172,
      "ł": 173,
      "Ń": 174,
      "Ġt": 175,
      "Ġa": 176,
      "he": 177,
      "in": 178,
      "re": 179,
      "on": 180,
      "Ġthe": 181,
      "er": 182,
      "Ġs": 183,
      "Ġw": 184,
      "at": 185,
      "Ġo": 186,
      "nd": 187,
      "Ġc": 188,
      "it": 189,
      "is": 190,
      "Ġb": 191,
      "or": 192,
      "en": 193,
      "ou": 194,
      "es": 195,
      "Ġf": 196,
      "ing": 197,
      "Ġp": 198,
      "ed": 199,
      "an": 200,
      "Ġto": 201,
      "Ġm": 202,
      "ar": 203,
      "al": 204,
      "Ġof": 205,
      "Ġand": 206,
      "Ġin": 207,
      "Ġh": 208,
      "Ġd": 209,
      "Ġth": 210,
      "as": 211,
      "ic": 212,
      "le": 213,
      "om": 214,
      "ion": 215,
      "ll": 216,
      "Ġl": 217,
      "ve": 218,
      "st": 219,
      "Ġn": 220,
      "ent": 221,
      "Ġre": 222,
      "âĢ": 223,
      "ĠI": 224,
      "Ġg": 225,
      "Ġe": 226,
      "ro": 227,
      "Ġbe": 228,
      "ly": 229,
      "ut": 230,
      "ac": 231,
      "ot": 232,
      "Ġy": 233,
      "ĠS": 234,
      "ĠT": 235,
      "Ġon": 236,
      "ay": 237,
      "Ġis": 238,
      "id": 239,
      "et": 240,
      "Ġthat": 241,
      "ĠA": 242,
      "ow": 243,
      "Ġfor": 244,
      "ĠC": 245,
      "se": 246,
      "ad": 247,
      "am": 248,
      "im": 249,
      "ur": 250,
      "Ġu": 251,
      "ig": 252,
      "ver": 253,
      "Ġyou": 254,
      "ct": 255,
      "Ġhe": 256,
      "il": 257,
      "Ġit": 258,
      "ol": 259,
      "Ġst": 260,
      "ir": 261,
      "ith": 262,
      "ĠM": 263,
      "ch": 264,
      "ĠB": 265,
      "ation": 266,
      "âĢĻ": 267,
      "Ġwith": 268,
      "ce": 269,
      "Ġwe": 270,
      "Ġwh": 271,
      "ill": 272,
      "Ġan": 273,
      "ter": 274,
      "ĠP": 275,
      "ke": 276,
      "Ġas": 277,
      "ld": 278,
      "Ġha": 279,
      "if": 280,
      "her": 281,
      "ĠW": 282,
      "oo": 283,
      "ers": 284,
      "ge": 285,
      "ĠH": 286,
      "Ġwas": 287,
      "ate": 288,
      "Ġse": 289,
      "Ġare": 290,
      "Ġat": 291,
      "ĠF": 292,
      "Ġr": 293,
      "Ġpro": 294,
      "ĠD": 295,
      "Ġcon": 296,
      "Ġcom": 297,
      "ĠR": 298,
      "ore": 299,
      "ri": 300,
      "ul": 301,
      "Ġ1": 302,
      "Ġde": 303,
      "pp": 304,
      "Ġ(": 305,
      "Ġor": 306,
      "th": 307,
      "Ġ2": 308,
      "ĠThe": 309,
      "est": 310,
      "us": 311,
      "ht": 312,
      "ment": 313,
      "ew": 314,
      "rom": 315,
      "Ġhave": 316,
      "ab": 317,
      "Ġthis": 318,
      "ist": 319,
      "ain": 320,
      "un": 321,
      "and": 322,
      "ant": 323,
      "ess": 324,
      "Ġv": 325,
      "ĠN": 326,
      "ĠL": 327,
      "'s": 328,
      "op": 329,
      "Ġsu": 330,
      "Ġnot": 331,
      "ive": 332,
      "ĠG": 333,
      "res": 334,
      "qu": 335,
      "em": 336,
      "art": 337,
      "Ġex": 338,
      "ould": 339,
      "Ġfrom": 340,
      "ust": 341,
      "Ġby": 342,
      "Ġch": 343,
      "Ġal": 344,
      "el": 345,
      "um": 346,
      "out": 347,
      "ity": 348,
      "ight": 349,
      "ĠJ": 350,
      "nt": 351,
      "ort": 352,
      "ĠE": 353,
      "os": 354,
      "pe": 355,
      "Ġsh": 356,
      "ome": 357,
      "oc": 358,
      "ies": 359,
      "all": 360,
      "ĠO": 361,
      "Ġj": 362,
      "ear": 363,
      "ost": 364,
      "Ġab": 365,
      "Ġwill": 366,
      "ard": 367,
      "ra": 368,
      "Ġcan": 369,
      "ĠâĢ": 370,
      "Ġle": 371,
      "ally": 372,
      "Ġpl": 373,
      "Ġdo": 374,
      "our": 375,
      "ast": 376,
      "ack": 377,
      "ud": 378,
      "Ġwor": 379,
      "ak": 380,
      "Ġall": 381,
      "od": 382,
      "Ġbut": 383,
      "Ġhas": 384,
      "red": 385,
      "te": 386,
      "iv": 387,
      "oug": 388,
      "ide": 389,
      "Ġout": 390,
      "Ġk": 391,
      "ie": 392,
      "Ġup": 393,
      "ag": 394,
      "The": 395,
      "ine": 396,
      "00": 397,
      "ap": 398,
      "Ġyour": 399,
      "Ġwhe": 400,
      "Ġme": 401,
      "Ġhis": 402,
      "one": 403,
      "ich": 404,
      "Ġne": 405,
      "fe": 406,
      "ther": 407,
      "Ġtr": 408,
      "Ġmy": 409,
      "og": 410,
      "ake": 411,
      "ĠU": 412,
      "ook": 413,
      "ure": 414,
      "act": 415,
      "ĠTh": 416,
      "Ġone": 417,
      "age": 418,
      "Ġus": 419,
      "ame": 420,
      "ound": 421,
      "ions": 422,
      "Ġabout": 423,
      "Ġthey": 424,
      "Ġmore": 425,
      "Ġad": 426,
      "Ġso": 427,
      "ood": 428,
      "ike": 429,
      "per": 430,
      "Ġsa": 431,
      "ous": 432,
      "ice": 433,
      "pl": 434,
      "Ġwho": 435,
      "Ġtheir": 436,
      "pt": 437,
      "ong": 438,
      "ial": 439,
      "Ġ\"": 440,
      "very": 441,
      "âĢĿ": 442,
      "ind": 443,
      "Ġte": 444,
      "ite": 445,
      "..": 446,
      "Ġgo": 447,
      "ĠSt": 448,
      "Ġcl": 449,
      "are": 450,
      "ough": 451,
      "Ġar": 452,
      "ry": 453,
      "able": 454,
      "ip": 455,
      "ks": 456,
      "au": 457,
      "Ġim": 458,
      "ime": 459,
      "Ġwould": 460,
      "ber": 461,
      "Ġen": 462,
      "ated": 463,
      "iz": 464,
      "Ġoff": 465,
      "ail": 466,
      "ans": 467,
      "ue": 468,
      "Ġqu": 469,
      "uc": 470,
      "to": 471,
      "ase": 472,
      "Ġsome": 473,
      "Ġyear": 474,
      "Ġcomp": 475,
      "ĠIn": 476,
      "ĠâĢľ": 477,
      "ub": 478,
      "ia": 479,
      "Ġcont": 480,
      "ĠY": 481,
      "ace": 482,
      "Ġman": 483,
      "ĠCh": 484,
      "Ġwhich": 485,
      "cc": 486,
      "Ġag": 487,
      "ink": 488,
      "ff": 489,
      "ree": 490,
      "Ġlike": 491,
      "so": 492,
      "Ġget": 493,
      "ings": 494,
      "ary": 495,
      "Ġthere": 496,
      "ove": 497,
      "Ġkn": 498,
      "Ġour": 499,
      "Ġper": 500,
      "Ġhad": 501,
      "ĠK": 502,
      "cl": 503,
      "Ġother": 504,
      "ach": 505,
      "Ġ20": 506,
      "ick": 507,
      "ose": 508,
      "ction": 509,
      "ven": 510,
      "own": 511,
      "Ġjust": 512,
      "Ġnew": 513,
      "ance": 514,
      "Ġany": 515,
      "Ġbeen": 516,
      "ond": 517,
      "ep": 518,
      "ays": 519,
      "reat": 520,
      "ass": 521,
      "ib": 522,
      "Ġher": 523,
      "Ġun": 524,
      "Ġres": 525,
      "orm": 526,
      "Ġ3": 527,
      "ĠIt": 528,
      "Ġdis": 529,
      "ire": 530,
      "ign": 531,
      "'t": 532,
      "Ġpr": 533,
      "Ġ-": 534,
      "Ġwhat": 535,
      "Ġwere": 536,
      "Ġthem": 537,
      "Ġapp": 538,
      "Ġsp": 539,
      "Ġsaid": 540,
      "mer": 541,
      "ount": 542,
      "av": 543,
      "Ġtime": 544,
      "Ġpart": 545,
      "ens": 546,
      "irst": 547,
      "Ġwhen": 548,
      "ĠHe": 549,
      "Ġthan": 550,
      "Ġbec": 551,
      "ult": 552,
      "ress": 553,
      "Ġover": 554,
      "Ġalso": 555,
      "ord": 556,
      "ile": 557,
      "ations": 558,
      "Ġif": 559,
      "Ġwork": 560,
      "ical": 561,
      "ob": 562,
      "Ġsc": 563,
      "Ġinto": 564,
      "ence": 565,
      "Ġfe": 566,
      "Ġtw": 567,
      "wn": 568,
      "Ġrec": 569,
      "Ġpe": 570,
      "int": 571,
      "ru": 572,
      "itt": 573,
      "ĠV": 574,
      "ade": 575,
      "Ġshe": 576,
      "Ġpre": 577,
      "Ġhow": 578,
      "ors": 579,
      "ause": 580,
      "ne": 581,
      "ition": 582,
      "Ġ201": 583,
      "ark": 584,
      "nder": 585,
      "ĠWe": 586,
      "Ġfirst": 587,
      "ish": 588,
      "ory": 589,
      "Ġam": 590,
      "Ġbl": 591,
      "erv": 592,
      "Ġimp": 593,
      "Ġro": 594,
      "Ġspe": 595,
      "Ġits": 596,
      "ict": 597,
      "ates": 598,
      "fter": 599,
      "ning": 600,
      "form": 601,
      "ents": 602,
      "vel": 603,
      "Ġgr": 604,
      "we": 605,
      "iss": 606,
      "ild": 607,
      "amp": 608,
      "vers": 609,
      "Ġno": 610,
      "Ġknow": 611,
      "ople": 612,
      "Ġplay": 613,
      "ov": 614,
      "hed": 615,
      "ious": 616,
      "Ġ4": 617,
      "ang": 618,
      "Ġtwo": 619,
      "oy": 620,
      "ty": 621,
      "ater": 622,
      "Ġmake": 623,
      "Ġthink": 624,
      "hing": 625,
      "gr": 626,
      "ons": 627,
      "day": 628,
      "aking": 629,
      "Ġpeople": 630,
      "ren": 631,
      "Ġpo": 632,
      "old": 633,
      "Ġneed": 634,
      "Ġbr": 635,
      "Ġmay": 636,
      "ian": 637,
      "ife": 638,
      "clud": 639,
      "Ġback": 640,
      "Ġbet": 641,
      "Ġcould": 642,
      "ĠThis": 643,
      "Ġhim": 644,
      "Ġdid": 645,
      "Ġthr": 646,
      "Ġco": 647,
      "Ġlook": 648,
      "lic": 649,
      "uch": 650,
      "igh": 651,
      "Ġwant": 652,
      "Ġnow": 653,
      "sel": 654,
      "anc": 655,
      "ft": 656,
      "Ġcomm": 657,
      ").": 658,
      "Ġonly": 659,
      "Ġevery": 660,
      "Ġsee": 661,
      "Ġadd": 662,
      "ull": 663,
      "Ġunder": 664,
      "les": 665,
      "Ġ5": 666,
      "urn": 667,
      "Ġacc": 668,
      "iew": 669,
      "ments": 670,
      "Ġgood": 671,
      "lp": 672,
      "Ġmost": 673,
      "Ġcol": 674,
      "rent": 675,
      "Ġfl": 676,
      "Th": 677,
      "end": 678,
      "Ġdon": 679,
      "Ġthrough": 680,
      "Ġbecause": 681,
      "row": 682,
      "Ġ200": 683,
      "fect": 684,
      "als": 685,
      "Ġright": 686,
      "ect": 687,
      "fore": 688,
      "ily": 689,
      "Ġown": 690,
      "ĠRe": 691,
      "Ġcons": 692,
      "Ġbu": 693,
      "ason": 694,
      "Ġhelp": 695,
      "Ġ19": 696,
      "Ġvery": 697,
      "du": 698,
      "ble": 699,
      "Ġthese": 700,
      "Ġhere": 701,
      "com": 702,
      "Ġafter": 703,
      "Ġinclud": 704,
      "Ġuse": 705,
      "other": 706,
      "xt": 707,
      "Ġrep": 708,
      "ĠYou": 709,
      "Ġmany": 710,
      "aw": 711,
      "Ġreg": 712,
      "ject": 713,
      "Ġyears": 714,
      "lect": 715,
      ".\"": 716,
      "ful": 717,
      "ied": 718,
      "oll": 719,
      "up": 720,
      "Ġdes": 721,
      "Ġmuch": 722,
      "Ġind": 723,
      "Ġthen": 724,
      "tern": 725,
      "Ġway": 726,
      "ise": 727,
      "Ġgreat": 728,
      "Ġact": 729,
      "Ġthose": 730,
      "Ġwell": 731,
      "ss": 732,
      "ange": 733,
      "Ġph": 734,
      "),": 735,
      "Ġke": 736,
      "Ġwhere": 737,
      "oup": 738,
      "Ġtoo": 739,
      "Ġeven": 740,
      "ave": 741,
      "Ġgu": 742,
      "ck": 743,
      "ĠSe": 744,
      "Ġinv": 745,
      "ited": 746,
      "Ġem": 747,
      "Ġagain": 748,
      "Ġshould": 749,
      "Ġdif": 750,
      "Ġmade": 751,
      "Ġwee": 752,
      "Ġdown": 753,
      "Ġdoes": 754,
      "oh": 755,
      "ph": 756,
      "Ġent": 757,
      "Ġrel": 758,
      "Ġ$": 759,
      "ating": 760,
      "ics": 761,
      "ock": 762,
      "ool": 763,
      "ix": 764,
      "ĠDe": 765,
      "ting": 766,
      "ities": 767,
      "...": 768,
      "Ġlast": 769,
      "enc": 770,
      "ĠWh": 771,
      "Ġdec": 772,
      "ener": 773,
      "ĠAnd": 774,
      "ouse": 775,
      "Ġrem": 776,
      "Ġread": 777,
      "Ġreally": 778,
      "pect": 779,
      "Ġbel": 780,
      "man": 781,
      "Ġi": 782,
      "omet": 783,
      "Ġday": 784,
      "hen": 785,
      "Ġpres": 786,
      "ĠUn": 787,
      "Ġsec": 788,
      "ert": 789,
      "ath": 790,
      "ual": 791,
      "ale": 792,
      "Ġprov": 793,
      "ms": 794,
      "Ġlong": 795,
      "rib": 796,
      "Ġinte": 797,
      "Ġsuch": 798,
      "ric": 799,
      "Ġsy": 800,
      "oth": 801,
      "ell": 802,
      "ational": 803,
      "ys": 804,
      "Ġev": 805,
      "Ġstud": 806,
      "erson": 807,
      "air": 808,
      "ward": 809,
      "Ġstart": 810,
      "Ġatt": 811,
      "bs": 812,
      "Ġfind": 813,
      "ular": 814,
      "ci": 815,
      "gg": 816,
      "Ġac": 817,
      "ont": 818,
      "Ġart": 819,
      "rit": 820,
      "Ġbefore": 821,
      "oss": 822,
      "ought": 823,
      "ĠCom": 824,
      "land": 825,
      "way": 826,
      "olog": 827,
      "Ġop": 828,
      "ased": 829,
      "Ġ6": 830,
      "alk": 831,
      "ility": 832,
      "Ġsupp": 833,
      "ner": 834,
      "Ġsm": 835,
      "ific": 836,
      "Ġche": 837,
      "Ġret": 838,
      "Ġgoing": 839,
      "Ġfin": 840,
      "ures": 841,
      "hes": 842,
      "ĠIf": 843,
      "get": 844,
      "Ġpol": 845,
      "arch": 846,
      "meric": 847,
      ",\"": 848,
      "Ġlife": 849,
      "ĠAn": 850,
      "ittle": 851,
      "Ġpost": 852,
      "Ġpub": 853,
      "Ġend": 854,
      "rest": 855,
      "Ġset": 856,
      "ĠâĢĵ": 857,
      "its": 858,
      "ident": 859,
      "Ġbeing": 860,
      "Ġshow": 861,
      "ines": 862,
      "ĠAl": 863,
      "ĠBut": 864,
      "Ġass": 865,
      "ince": 866,
      "iness": 867,
      "Ġmon": 868,
      "ĠFr": 869,
      "hip": 870,
      "Ġtake": 871,
      "Ġinst": 872,
      "Ġinc": 873,
      "ĠAr": 874,
      "uring": 875,
      "ative": 876,
      "chool": 877,
      "ng": 878,
      "In": 879,
      "Ġsay": 880,
      "ts": 881,
      "Ġsomet": 882,
      "cess": 883,
      "ible": 884,
      "self": 885,
      "Ġteam": 886,
      "Ġmin": 887,
      "ually": 888,
      "Ġlittle": 889,
      "ower": 890,
      "Ġworld": 891,
      "akes": 892,
      "Ġed": 893,
      "io": 894,
      "und": 895,
      "Ġserv": 896,
      "arn": 897,
      "Ġhigh": 898,
      "ĠAmeric": 899,
      "ah": 900,
      "Ġstill": 901,
      "Ġdiffe": 902,
      "atch": 903,
      "stem": 904,
      "Ġcount": 905,
      "ute": 906,
      "Ġcour": 907,
      "Ġrun": 908,
      "ollow": 909,
      "ues": 910,
      "Ġstate": 911,
      "Ġexper": 912,
      "son": 913,
      "ving": 914,
      "ĠNew": 915,
      "read": 916,
      "ices": 917,
      "Ġcall": 918,
      "Ġspec": 919,
      "Ġnum": 920,
      "ather": 921,
      "ants": 922,
      "ox": 923,
      "Ġsame": 924,
      "Ġbest": 925,
      "velop": 926,
      "imes": 927,
      ".âĢĿ": 928,
      "ohn": 929,
      "alth": 930,
      "Ġthings": 931,
      "vern": 932,
      "orn": 933,
      "Ġins": 934,
      "Ġbus": 935,
      "Ġreal": 936,
      "Ġ10": 937,
      "formation": 938,
      "led": 939,
      "Ġinter": 940,
      "Ġfew": 941,
      "Ġlove": 942,
      "ution": 943,
      "ages": 944,
      "Ġpoint": 945,
      "Ġgame": 946,
      "cept": 947,
      "Wh": 948,
      "Ġsub": 949,
      "gin": 950,
      "Ġ7": 951,
      "ffect": 952,
      "gan": 953,
      "Ġmed": 954,
      "urch": 955,
      "Ġ.": 956,
      "Ġperson": 957,
      "ives": 958,
      "ax": 959,
      "ork": 960,
      "oun": 961,
      "pr": 962,
      "Ġhapp": 963,
      "arm": 964,
      "Ġthree": 965,
      "Ġlot": 966,
      "ĠPro": 967,
      "ience": 968,
      "Ġfam": 969,
      "Ġrequ": 970,
      "ters": 971,
      "view": 972,
      "Ġfun": 973,
      "Ġhand": 974,
      "Ġquest": 975,
      "uck": 976,
      "Ġfeel": 977,
      "Ġsim": 978,
      "Ġhome": 979,
      "Ġwhile": 980,
      "ves": 981,
      "any": 982,
      "Ġdisc": 983,
      "ames": 984,
      "Ġanother": 985,
      "ists": 986,
      "ient": 987,
      "ween": 988,
      "ene": 989,
      "It": 990,
      "ces": 991,
      "Ġlead": 992,
      "the": 993,
      "Ġser": 994,
      "ets": 995,
      "ĠBl": 996,
      "ever": 997,
      "ton": 998,
      "Ġloc": 999,
      "gram": 1000,
      "ĠJohn": 1001,
      "ivers": 1002,
      "Ġeach": 1003,
      "Ġrest": 1004,
      "Ġsystem": 1005,
      "Ġbetween": 1006,
      "be": 1007,
      "ense": 1008,
      "Ġnever": 1009,
      "Ġaround": 1010,
      "We": 1011,
      "ex": 1012,
      "Ġused": 1013,
      "iet": 1014,
      "ier": 1015,
      "Ġsl": 1016,
      "ĠFor": 1017,
      "Ġgot": 1018,
      "Ġgener": 1019,
      "Ġcome": 1020,
      "riend": 1021,
      "Ġstr": 1022,
      "ĠBe": 1023,
      "Ġdef": 1024,
      "irect": 1025,
      "Ġfound": 1026,
      "ĠAs": 1027,
      "thing": 1028,
      "Ġcur": 1029,
      "Ġfollow": 1030,
      "Ġ&": 1031,
      "Ġsur": 1032,
      "Ġcar": 1033,
      "ank": 1034,
      "Ġ--": 1035,
      "Ġmem": 1036,
      "ĠCl": 1037,
      "Ġord": 1038,
      "cent": 1039,
      "Ġproble": 1040,
      "Ġ8": 1041,
      "Ġbig": 1042,
      "ield": 1043,
      "Ġdifferent": 1044,
      "oot": 1045,
      "ways": 1046,
      "Ġinformation": 1047,
      "Ġchar": 1048,
      "This": 1049,
      "19": 1050,
      "Ġsign": 1051,
      "Ġfact": 1052,
      "Ġfree": 1053,
      "Ġput": 1054,
      "Ġsomething": 1055,
      "ved": 1056,
      "Ġear": 1057,
      "Ġdevelop": 1058,
      "Ġweek": 1059,
      "Ġinterest": 1060,
      "Ġbusiness": 1061,
      "Ġbook": 1062,
      "Ġboth": 1063,
      "ee": 1064,
      "line": 1065,
      "ĠThat": 1066,
      "Ġ9": 1067,
      "att": 1068,
      "Ġcre": 1069,
      "Ġjob": 1070,
      "Ġlar": 1071,
      "ird": 1072,
      "Ġlist": 1073,
      "min": 1074,
      "Ġav": 1075,
      "ĠSh": 1076,
      "Ġopen": 1077,
      "Ġcare": 1078,
      "lear": 1079,
      "Ġtrans": 1080,
      "rist": 1081,
      "Ġplace": 1082,
      "con": 1083,
      "Ġwin": 1084,
      "Ġmight": 1085,
      "Ġmod": 1086,
      "Ġpublic": 1087,
      "ract": 1088,
      "Ġmark": 1089,
      "unity": 1090,
      "Ġbetter": 1091,
      "ger": 1092,
      "here": 1093,
      "ize": 1094,
      "ĠSo": 1095,
      "Ġhead": 1096,
      "Ġseason": 1097,
      "Ġ2012": 1098,
      "ret": 1099,
      "âĢľ": 1100,
      "uth": 1101,
      "ĠThere": 1102,
      "ision": 1103,
      "ized": 1104,
      "az": 1105,
      "Ġprodu": 1106,
      "Ġagainst": 1107,
      "Ġ'": 1108,
      "lease": 1109,
      "ĠIs": 1110,
      "ann": 1111,
      "chn": 1112,
      "ten": 1113,
      "Ġsince": 1114,
      "Ġexp": 1115,
      "oney": 1116,
      "Ġpartic": 1117,
      "Ġbelie": 1118,
      "!!": 1119,
      "Ġschool": 1120,
      "âĢ¦": 1121,
      "ying": 1122,
      "Ġpass": 1123,
      "ash": 1124,
      "ĠAd": 1125,
      "Ġprogram": 1126,
      "Ġtri": 1127,
      "Ġpat": 1128,
      "Ġdet": 1129,
      "ically": 1130,
      "Ġgl": 1131,
      "ote": 1132,
      "Ġgovern": 1133,
      "ik": 1134,
      "ering": 1135,
      "Ġnext": 1136,
      "20": 1137,
      "illion": 1138,
      "Ġcomple": 1139,
      "Ġkeep": 1140,
      "bers": 1141,
      "aug": 1142,
      "ern": 1143,
      "Ġold": 1144,
      "Ġfour": 1145,
      "'m": 1146,
      "ired": 1147,
      "less": 1148,
      "Ġeas": 1149,
      "Ġob": 1150,
      "Ġfil": 1151,
      "Ġmust": 1152,
      "Ġiss": 1153,
      "Ġsupport": 1154,
      "Ġcor": 1155,
      "Ġsecond": 1156,
      "Ġtop": 1157,
      "Ġduring": 1158,
      "Ġline": 1159,
      "Ġreport": 1160,
      "duc": 1161,
      "Ġter": 1162,
      "ĠLe": 1163,
      "Ġclass": 1164,
      "Ġdidn": 1165,
      "Ġcr": 1166,
      "Ġask": 1167,
      "Ġalways": 1168,
      "'ve": 1169,
      "Ġseem": 1170,
      "Ġproper": 1171,
      "ĠThey": 1172,
      ",âĢĿ": 1173,
      "He": 1174,
      "ats": 1175,
      "Ġmov": 1176,
      "ases": 1177,
      "Ġadv": 1178,
      "ention": 1179,
      "uss": 1180,
      "Ġext": 1181,
      "'re": 1182,
      "reen": 1183,
      "ars": 1184,
      "ards": 1185,
      "ailable": 1186,
      "ged": 1187,
      "ished": 1188,
      "ology": 1189,
      "ĠQ": 1190,
      "ĠShe": 1191,
      ".,": 1192,
      "ness": 1193,
      "icle": 1194,
      "ĠHow": 1195,
      "ison": 1196,
      "Ġunt": 1197,
      "Ġallow": 1198,
      "Ġimport": 1199,
      "ug": 1200,
      "ross": 1201,
      "Ġstand": 1202,
      "Ġconst": 1203,
      "Ġturn": 1204,
      "Ġwr": 1205,
      "Ġwater": 1206,
      "Ġfriend": 1207,
      "Ġproject": 1208,
      "Ġ15": 1209,
      "iving": 1210,
      "Ġblog": 1211,
      "Ġcolle": 1212,
      "ature": 1213,
      "Ġhealth": 1214,
      "fl": 1215,
      "Ġsoc": 1216,
      "ĠOr": 1217,
      "iam": 1218,
      "Ġcent": 1219,
      "Ġdist": 1220,
      "Ġchild": 1221,
      "Ġnumber": 1222,
      "Ġappro": 1223,
      "Ġrecent": 1224,
      "ling": 1225,
      "Ġ[": 1226,
      "Ġhard": 1227,
      "Ġ12": 1228,
      "Ġval": 1229,
      "Ġsmall": 1230,
      "ott": 1231,
      "Ġlet": 1232,
      "Ġgroup": 1233,
      "Ġbuild": 1234,
      "Ġmonth": 1235,
      "Ġpri": 1236,
      "ption": 1237,
      "Ġincluding": 1238,
      "Ġthought": 1239,
      "ced": 1240,
      "Ġtra": 1241,
      "Ġsk": 1242,
      "atur": 1243,
      "Ġeffect": 1244,
      "Ġcontin": 1245,
      "Ġest": 1246,
      "ĠCol": 1247,
      "Ġann": 1248,
      "Ġprof": 1249,
      "Ġusing": 1250,
      "plain": 1251,
      "ipp": 1252,
      "port": 1253,
      "Ġgive": 1254,
      "Ġwithout": 1255,
      "Ġsure": 1256,
      "Ġchange": 1257,
      "000": 1258,
      "ensive": 1259,
      "ample": 1260,
      "ared": 1261,
      "Ġsays": 1262,
      "Ġide": 1263,
      "Ġtaking": 1264,
      "Ġel": 1265,
      "ately": 1266,
      "Ġword": 1267,
      "ĠComm": 1268,
      "If": 1269,
      "oard": 1270,
      "ins": 1271,
      "Ġdirect": 1272,
      "Ġvide": 1273,
      "Ġfull": 1274,
      "ĠChrist": 1275,
      "ency": 1276,
      "Ġ0": 1277,
      "Ġhop": 1278,
      "Ġthing": 1279,
      "stand": 1280,
      "ĠTr": 1281,
      "ĠGr": 1282,
      "Ġkind": 1283,
      "me": 1284,
      "Ġbit": 1285,
      "Ġvar": 1286,
      "br": 1287,
      "Ġbro": 1288,
      "Ġ17": 1289,
      "ĠOn": 1290,
      "Ġresult": 1291,
      "Ġform": 1292,
      "Ġ18": 1293,
      "ĠGod": 1294,
      "Ġgovernment": 1295,
      "orth": 1296,
      "ality": 1297,
      "ley": 1298,
      "ĠBr": 1299,
      "iversity": 1300,
      "aj": 1301,
      "Ġcame": 1302,
      "enn": 1303,
      "Ġfr": 1304,
      "ĠAll": 1305,
      "osed": 1306,
      "ready": 1307,
      "Ġopp": 1308,
      "ided": 1309,
      "Ġvis": 1310,
      "por": 1311,
      "Ġposs": 1312,
      "Ġmain": 1313,
      "Ġrece": 1314,
      "ĠMar": 1315,
      "Ġorgan": 1316,
      "ĠâĢĶ": 1317,
      "ertain": 1318,
      "gy": 1319,
      "Ġpower": 1320,
      "Ġmar": 1321,
      "Ġdri": 1322,
      "ploy": 1323,
      "Ġuntil": 1324,
      "Ġmus": 1325,
      "ĠAt": 1326,
      "outh": 1327,
      "Ġpop": 1328,
      "Ġint": 1329,
      "ides": 1330,
      "Ġfar": 1331,
      "rol": 1332,
      "Ġdeal": 1333,
      "Ġpercent": 1334,
      "ball": 1335,
      "ok": 1336,
      "||": 1337,
      "Ġref": 1338,
      "Ġlevel": 1339,
      "Ġplan": 1340,
      "aps": 1341,
      "Ġnews": 1342,
      "ĠPh": 1343,
      "Ġleft": 1344,
      "Ġquestion": 1345,
      "ĠZ": 1346,
      "Ġtalk": 1347,
      "atter": 1348,
      "Ġ11": 1349,
      "une": 1350,
      "Ġfamily": 1351,
      "book": 1352,
      "med": 1353,
      "Ġty": 1354,
      "Ġwent": 1355,
      "Ġcase": 1356,
      "Ġpast": 1357,
      "Ġland": 1358,
      "iron": 1359,
      "ĠPl": 1360,
      "Ġprocess": 1361,
      "oad": 1362,
      "Ġpos": 1363,
      "Ġnight": 1364,
      "urs": 1365,
      "Ġdem": 1366,
      "Ġable": 1367,
      "conom": 1368,
      "Ġpay": 1369,
      "Ġmaking": 1370,
      "Ġless": 1371,
      "pend": 1372,
      "Ġenough": 1373,
      "ered": 1374,
      "Ġtimes": 1375,
      "Ġlive": 1376,
      "iles": 1377,
      "ode": 1378,
      "Ġresp": 1379,
      "Ġavailable": 1380,
      "Ġdra": 1381,
      "Ġhaving": 1382,
      "Ġalready": 1383,
      "Ġtechn": 1384,
      "Ġpresent": 1385,
      "Ġsal": 1386,
      "Ġtoday": 1387,
      "ider": 1388,
      "Ġdesign": 1389,
      "Ġair": 1390,
      "Ġcost": 1391,
      "Ġhum": 1392,
      "âĢĶ": 1393,
      "Ġever": 1394,
      "ĠMay": 1395,
      "Ġphot": 1396,
      "ĠAmerican": 1397,
      "Ġcurrent": 1398,
      "iver": 1399,
      "ral": 1400,
      "Ġaway": 1401,
      "Ġsit": 1402,
      "Ġwom": 1403,
      "ember": 1404,
      "arent": 1405,
      "Ġprev": 1406,
      "What": 1407,
      "ec": 1408,
      "ism": 1409,
      "Ġyoung": 1410,
      "els": 1411,
      "ĠState": 1412,
      "ccess": 1413,
      "rence": 1414,
      "Ġcamp": 1415,
      "Ġdr": 1416,
      "Ġlim": 1417,
      "avor": 1418,
      "of": 1419,
      "oint": 1420,
      "Ġside": 1421,
      "Ġwhy": 1422,
      "Ġdoesn": 1423,
      "Ġimportant": 1424,
      "app": 1425,
      "ury": 1426,
      "Ġconf": 1427,
      "Ġmean": 1428,
      "Ġlarge": 1429,
      "ured": 1430,
      "ony": 1431,
      "Ġsol": 1432,
      "ĠTe": 1433,
      "Ġview": 1434,
      "Ġarticle": 1435,
      "Ġoften": 1436,
      "acc": 1437,
      "ĠApp": 1438,
      "ump": 1439,
      "tend": 1440,
      "Ġtell": 1441,
      "Ġgetting": 1442,
      "Ġinvest": 1443,
      "St": 1444,
      "uff": 1445,
      "ream": 1446,
      "irl": 1447,
      "ify": 1448,
      "ium": 1449,
      "ober": 1450,
      "Ġchang": 1451,
      "ody": 1452,
      "Ġmarket": 1453,
      "10": 1454,
      "ware": 1455,
      "ids": 1456,
      "ably": 1457,
      "Ġoffer": 1458,
      "ission": 1459,
      "ories": 1460,
      "Ġmoney": 1461,
      "allen": 1462,
      "ived": 1463,
      "ruct": 1464,
      "Ġexperience": 1465,
      "ead": 1466,
      "ior": 1467,
      "rict": 1468,
      "ined": 1469,
      "Ġsw": 1470,
      "Ġhour": 1471,
      "ĠCo": 1472,
      "Ġ30": 1473,
      "Ġbecome": 1474,
      "ording": 1475,
      "yle": 1476,
      "Ġsite": 1477,
      "ional": 1478,
      "veral": 1479,
      "Ġcourse": 1480,
      "--": 1481,
      "side": 1482,
      "Ġfive": 1483,
      "Ġrese": 1484,
      "Ġconc": 1485,
      "ajor": 1486,
      "alf": 1487,
      "Ġstory": 1488,
      "Ġleg": 1489,
      "'ll": 1490,
      "iting": 1491,
      "ither": 1492,
      "ised": 1493,
      "aring": 1494,
      "Ġdone": 1495,
      "ĠAm": 1496,
      "ĠCour": 1497,
      "12": 1498,
      "iqu": 1499,
      "Ġes": 1500,
      "reak": 1501,
      "Ġcheck": 1502,
      "Ġbelieve": 1503,
      "Ġ|": 1504,
      "Ġprom": 1505,
      "Ġwithin": 1506,
      "ĠNo": 1507,
      "Ġpolic": 1508,
      "inal": 1509,
      "Ġoper": 1510,
      "Ġdays": 1511,
      "Ġreview": 1512,
      "Ġequ": 1513,
      "ĠSc": 1514,
      "Ġocc": 1515,
      "ital": 1516,
      "Ġfore": 1517,
      "Ġpie": 1518,
      "Ġmove": 1519,
      "Ġmeet": 1520,
      "Ġincre": 1521,
      "Ġcountry": 1522,
      "Ġsimp": 1523,
      "Ġorder": 1524,
      "use": 1525,
      "ane": 1526,
      "Ġmakes": 1527,
      "ĠSp": 1528,
      "ĠCar": 1529,
      "Ġdoing": 1530,
      "uthor": 1531,
      "Ġmillion": 1532,
      "Ġhist": 1533,
      "Ġgames": 1534,
      "Ġeconom": 1535,
      "Ġbegin": 1536,
      "ĠCon": 1537,
      "ĠCan": 1538,
      "Ġroom": 1539,
      "Ġeduc": 1540,
      "Ġcalled": 1541,
      "Ġproblem": 1542,
      "not": 1543,
      "viron": 1544,
      "Ġwon": 1545,
      "Ġmet": 1546,
      "aster": 1547,
      "Ġseveral": 1548,
      "Ġleast": 1549,
      "Ġtook": 1550,
      "Ġstudents": 1551,
      "Ġlocal": 1552,
      "ration": 1553,
      "Ġmen": 1554,
      "utes": 1555,
      "Ġwebs": 1556,
      "Ġcompany": 1557,
      "ted": 1558,
      "Ġcap": 1559,
      "Ġtoget": 1560,
      "Ġthough": 1561,
      "Ġnear": 1562,
      "Ġname": 1563,
      "Ġdel": 1564,
      "Ġsuccess": 1565,
      "Ġ2011": 1566,
      "ĠWhat": 1567,
      "Ġcomplete": 1568,
      "Ġtogether": 1569,
      "aim": 1570,
      "ches": 1571,
      "itive": 1572,
      "Ġlight": 1573,
      "ilar": 1574,
      "ified": 1575,
      "Ġexpect": 1576,
      "ogra": 1577,
      "Ġperform": 1578,
      ".)": 1579,
      "Ġbas": 1580,
      "Ġ13": 1581,
      "Ġregul": 1582,
      "Ġproperty": 1583,
      "cri": 1584,
      "most": 1585,
      "ring": 1586,
      "Ġtax": 1587,
      "Ġsing": 1588,
      "Ġheart": 1589,
      "ization": 1590,
      "Ġothers": 1591,
      "Ġ2010": 1592,
      "Ġlaw": 1593,
      "Ġgrow": 1594,
      "Ġbeh": 1595,
      "ĠSer": 1596,
      "ains": 1597,
      "ĠEx": 1598,
      "Ġhappen": 1599,
      "ER": 1600,
      "ging": 1601,
      "tt": 1602,
      "inc": 1603,
      "Ġet": 1604,
      "Ġonline": 1605,
      "Ġanim": 1606,
      "Ġalong": 1607,
      "ffic": 1608,
      "Ġlooking": 1609,
      "Ġspecial": 1610,
      "wh": 1611,
      "Ġtem": 1612,
      "ĠSte": 1613,
      "ourn": 1614,
      "aper": 1615,
      "itional": 1616,
      "ĠUnited": 1617,
      "ĠCourt": 1618,
      "An": 1619,
      "So": 1620,
      "for": 1621,
      "Ġball": 1622,
      "Ġlearn": 1623,
      "iven": 1624,
      "Ġtrad": 1625,
      "ĠUniversity": 1626,
      "And": 1627,
      "aut": 1628,
      "ges": 1629,
      "Ġwond": 1630,
      "ĠMed": 1631,
      "ries": 1632,
      "Ġdep": 1633,
      "ĠâĢĺ": 1634,
      "Ġunderstand": 1635,
      "enef": 1636,
      "ww": 1637,
      "ery": 1638,
      "Ġpurch": 1639,
      "ĠCent": 1640,
      "aining": 1641,
      "Ġaccount": 1642,
      "Ġstarted": 1643,
      "vironment": 1644,
      "But": 1645,
      "aff": 1646,
      "Ġve": 1647,
      "Ġcoup": 1648,
      "Ġhit": 1649,
      "ĠInd": 1650,
      "Ġarea": 1651,
      "ability": 1652,
      "Ġcompet": 1653,
      "Ġ2013": 1654,
      "lish": 1655,
      "Ġfac": 1656,
      "Ġreason": 1657,
      "ĠCal": 1658,
      "ĠBro": 1659,
      "There": 1660,
      "Ġworking": 1661,
      "Ġinvol": 1662,
      "ched": 1663,
      "Ġwrit": 1664,
      "Ġpot": 1665,
      "Ġseen": 1666,
      "ĠRes": 1667,
      "oci": 1668,
      "Ġwhether": 1669,
      "ĠStates": 1670,
      "Ġcommunity": 1671,
      "Ġproduct": 1672,
      "13": 1673,
      "You": 1674,
      "co": 1675,
      "ron": 1676,
      "ator": 1677,
      "Ġfood": 1678,
      "Ġfield": 1679,
      "ĠMan": 1680,
      "ĠWith": 1681,
      "Ġcomb": 1682,
      "Ġcomes": 1683,
      "used": 1684,
      "Ġvacc": 1685,
      "selves": 1686,
      "Ġactually": 1687,
      "joy": 1688,
      "mber": 1689,
      "uly": 1690,
      "ina": 1691,
      "Ġsix": 1692,
      "Ġwa": 1693,
      "Ġpage": 1694,
      "ĠCount": 1695,
      "Ġprote": 1696,
      "Ġ16": 1697,
      "ances": 1698,
      "Ġindust": 1699,
      "era": 1700,
      "org": 1701,
      "Ġnon": 1702,
      "acter": 1703,
      "ĠRep": 1704,
      "Ġimpro": 1705,
      "iously": 1706,
      "Ġpolit": 1707,
      "Ġservice": 1708,
      "Ġdiscuss": 1709,
      "15": 1710,
      "Ġwatch": 1711,
      "ĠTo": 1712,
      "ĠTw": 1713,
      "ĠWill": 1714,
      "Ġchance": 1715,
      "osp": 1716,
      "ounds": 1717,
      "Ġfeat": 1718,
      "Ġevent": 1719,
      "Ġparticular": 1720,
      "Ġz": 1721,
      "rew": 1722,
      "Ġpick": 1723,
      "Ġthird": 1724,
      "Ġcomplain": 1725,
      "Ġshort": 1726,
      "ails": 1727,
      "Ġquite": 1728,
      "Ġanything": 1729,
      "Ġmusic": 1730,
      "As": 1731,
      "crib": 1732,
      "Ġcertain": 1733,
      "Ġmajor": 1734,
      "ilt": 1735,
      "Ġ14": 1736,
      "Ġrecord": 1737,
      "Ġpersonal": 1738,
      "Ġcut": 1739,
      "Ġtold": 1740,
      "let": 1741,
      "Ġonce": 1742,
      "Ġcond": 1743,
      "Ġeng": 1744,
      "Ġappear": 1745,
      "'d": 1746,
      "Ġcreat": 1747,
      "icult": 1748,
      "oles": 1749,
      "ĠFl": 1750,
      "Ġcontrol": 1751,
      "Ġpract": 1752,
      "Ġaddress": 1753,
      "Ġreturn": 1754,
      "Ġsocial": 1755,
      "ai": 1756,
      "ef": 1757,
      "go": 1758,
      "Ġrele": 1759,
      "hers": 1760,
      "ored": 1761,
      "Ġsum": 1762,
      "Ġexample": 1763,
      "umb": 1764,
      "ĠChar": 1765,
      "Ġinclude": 1766,
      "iety": 1767,
      "fort": 1768,
      "oes": 1769,
      "Ġtak": 1770,
      "ination": 1771,
      "Ġfavor": 1772,
      "uture": 1773,
      "ĠAb": 1774,
      "Ġsell": 1775,
      "ests": 1776,
      "Ġchallen": 1777,
      "Ġknown": 1778,
      "itting": 1779,
      "opp": 1780,
      "oice": 1781,
      "pro": 1782,
      "reed": 1783,
      "Ġhold": 1784,
      "Ġhouse": 1785,
      "Ġisn": 1786,
      "ĠMr": 1787,
      "Ġvot": 1788,
      "agement": 1789,
      "ully": 1790,
      "Ġwebsite": 1791,
      "back": 1792,
      "ev": 1793,
      "ians": 1794,
      "Ġmom": 1795,
      "Ġmiss": 1796,
      "Ġlater": 1797,
      "key": 1798,
      "Ġoffic": 1799,
      "Ġactiv": 1800,
      "Ġearly": 1801,
      "Ġident": 1802,
      "Ġwar": 1803,
      "itions": 1804,
      "Ġport": 1805,
      "Ġyet": 1806,
      "iday": 1807,
      "Ġmeans": 1808,
      "Ġclose": 1809,
      "Ġprison": 1810,
      "Ġprovide": 1811,
      "ĠQu": 1812,
      "Ġvideo": 1813,
      "cial": 1814,
      "reg": 1815,
      "eral": 1816,
      "ata": 1817,
      "acy": 1818,
      "ots": 1819,
      "imate": 1820,
      "ustom": 1821,
      "ĠOct": 1822,
      "Ġcontract": 1823,
      "Ġpret": 1824,
      "11": 1825,
      "by": 1826,
      "par": 1827,
      "Ġeither": 1828,
      "ills": 1829,
      "Ġwhole": 1830,
      "Ġphys": 1831,
      "reet": 1832,
      "Ġbased": 1833,
      "Ġpain": 1834,
      "Ġhalf": 1835,
      "omm": 1836,
      "stit": 1837,
      "Ġelect": 1838,
      "Ġalmost": 1839,
      "ĠUS": 1840,
      "Ġbring": 1841,
      "Ġkey": 1842,
      "50": 1843,
      "Ġce": 1844,
      "itor": 1845,
      "Ġbenef": 1846,
      "Ġpict": 1847,
      "ĠWhen": 1848,
      "oph": 1849,
      "Ġsomeone": 1850,
      "Ġwanted": 1851,
      "Ġaccess": 1852,
      "Ġchildren": 1853,
      "Ġvers": 1854,
      "Ġbur": 1855,
      "Ġpar": 1856,
      "idd": 1857,
      "ĠMy": 1858,
      "Ġprop": 1859,
      "ained": 1860,
      "Ġtry": 1861,
      "Ġquick": 1862,
      "Ġbuy": 1863,
      "ĠAmerica": 1864,
      "ES": 1865,
      "Ġbase": 1866,
      "ouch": 1867,
      "anks": 1868,
      "Ġla": 1869,
      "Ġgirl": 1870,
      "Ġorig": 1871,
      "ĠJust": 1872,
      "Ġeverything": 1873,
      "fer": 1874,
      "work": 1875,
      "Ġtre": 1876,
      "Ġsn": 1877,
      "Ġclear": 1878,
      "Ġmult": 1879,
      "ĠAss": 1880,
      "ama": 1881,
      "ĠGl": 1882,
      "ĠOne": 1883,
      "Ġperfect": 1884,
      "Ġproblems": 1885,
      "Ġfriends": 1886,
      "lished": 1887,
      "ps": 1888,
      "yn": 1889,
      "Ġauthor": 1890,
      "ising": 1891,
      "Ġmind": 1892,
      "ential": 1893,
      "Ġexist": 1894,
      "Ġenjoy": 1895,
      "Ġprint": 1896,
      "Ġissue": 1897,
      "Ġprofess": 1898,
      "Ġpolicy": 1899,
      "Ġpretty": 1900,
      "//": 1901,
      "acebook": 1902,
      "wards": 1903,
      "Ġmembers": 1904,
      "augh": 1905,
      "Ġhope": 1906,
      "Ġresearch": 1907,
      "On": 1908,
      "him": 1909,
      "over": 1910,
      "year": 1911,
      "Ġfuture": 1912,
      "Ġprob": 1913,
      "ried": 1914,
      "ĠNational": 1915,
      "apan": 1916,
      "Ġtrying": 1917,
      "Ġclaim": 1918,
      "nect": 1919,
      "Ġamong": 1920,
      "Ġretail": 1921,
      "Ġeasy": 1922,
      "30": 1923,
      "IN": 1924,
      "ones": 1925,
      "ister": 1926,
      "Ġfoc": 1927,
      "Ġintern": 1928,
      "Ġhot": 1929,
      "Ġlay": 1930,
      "abor": 1931,
      "ĠGe": 1932,
      "ources": 1933,
      "Ġemploy": 1934,
      "Ġcourt": 1935,
      "Ġelse": 1936,
      "://": 1937,
      "load": 1938,
      "Ġlow": 1939,
      "Ġele": 1940,
      "illed": 1941,
      "Ġcoming": 1942,
      "artment": 1943,
      "ource": 1944,
      "ference": 1945,
      "Ġblack": 1946,
      "ĠiP": 1947,
      "Ġhours": 1948,
      "Ġcouple": 1949,
      "Ġcity": 1950,
      "Ġcustom": 1951,
      "Ġfund": 1952,
      "Ġtool": 1953,
      "ows": 1954,
      "ĠWor": 1955,
      "orts": 1956,
      "ients": 1957,
      "Ġwasn": 1958,
      "ands": 1959,
      "Ġshare": 1960,
      "Ġsoft": 1961,
      "Ġprice": 1962,
      "Ġplayed": 1963,
      "aterial": 1964,
      "Ġeveryone": 1965,
      "bor": 1966,
      "gu": 1967,
      "atory": 1968,
      "itter": 1969,
      "aces": 1970,
      "iding": 1971,
      "Ġra": 1972,
      "ĠDav": 1973,
      "Ġdeb": 1974,
      "Ġdeep": 1975,
      "though": 1976,
      "empt": 1977,
      "uclear": 1978,
      "Ġagree": 1979,
      "Ġneeds": 1980,
      "Ġemail": 1981,
      "Ġminutes": 1982,
      "Ġseries": 1983,
      "Ġcrit": 1984,
      "Ġbar": 1985,
      "ster": 1986,
      "room": 1987,
      "Ġstep": 1988,
      "ĠPal": 1989,
      "Ġabove": 1990,
      "Ġworks": 1991,
      "Ġenc": 1992,
      "Ġbelow": 1993,
      "RE": 1994,
      "board": 1995,
      "ners": 1996,
      "oin": 1997,
      "oor": 1998,
      "head": 1999,
      "inks": 2000,
      "Ġfail": 2001,
      "Ġpit": 2002,
      "Ġinf": 2003,
      "roll": 2004,
      "ĠSm": 2005,
      "irt": 2006,
      "Ġsugg": 2007,
      "ogn": 2008,
      "Ġasked": 2009,
      "ique": 2010,
      "ule": 2011,
      "Ġswe": 2012,
      "Ġcook": 2013,
      "Ġpress": 2014,
      "arter": 2015,
      "ĠAf": 2016,
      "irc": 2017,
      "ĠMe": 2018,
      "ĠPr": 2019,
      "Ġenvironment": 2020,
      "Ġamount": 2021,
      "Ġfollowing": 2022,
      "ON": 2023,
      "Ġfig": 2024,
      "Ġpur": 2025,
      "Ġdou": 2026,
      "Ġgave": 2027,
      "ĠFe": 2028,
      "ĠJan": 2029,
      "osted": 2030,
      "Ġentire": 2031,
      "cially": 2032,
      "ĠArch": 2033,
      "Ġcollection": 2034,
      "Ġopport": 2035,
      "ograph": 2036,
      "AN": 2037,
      "When": 2038,
      "mb": 2039,
      "sh": 2040,
      "edd": 2041,
      "Ġstay": 2042,
      "ĠNot": 2043,
      "ĠEd": 2044,
      "ĠEng": 2045,
      "ples": 2046,
      "ĠYork": 2047,
      "Ġdise": 2048,
      "Ġscient": 2049,
      "Ġgeneral": 2050,
      "Ġdevelopment": 2051,
      "Ġvalue": 2052,
      "For": 2053,
      "aign": 2054,
      "iod": 2055,
      "oon": 2056,
      "yl": 2057,
      "atic": 2058,
      "Ġca": 2059,
      "âĢĵ": 2060,
      "ĠHer": 2061,
      "ager": 2062,
      "Ġconsider": 2063,
      "ribut": 2064,
      "ornia": 2065,
      "Ġrequire": 2066,
      "Ġcreate": 2067,
      "Ġmonths": 2068,
      "Ġpriv": 2069,
      "Ġwords": 2070,
      "Ġtyp": 2071,
      "ĠCalif": 2072,
      "ĠCounty": 2073,
      "AT": 2074,
      "Ġage": 2075,
      "Ġsong": 2076,
      "Ġtot": 2077,
      "Ġmaterial": 2078,
      "ĠCity": 2079,
      "ural": 2080,
      "ilities": 2081,
      "Ġstore": 2082,
      "ĠMich": 2083,
      "ĠPer": 2084,
      "ĠHar": 2085,
      "ush": 2086,
      "unch": 2087,
      "ibr": 2088,
      "Ġacross": 2089,
      "Ġwomen": 2090,
      "Ch": 2091,
      "bum": 2092,
      "gress": 2093,
      "uro": 2094,
      "Ġmor": 2095,
      "Ġmatter": 2096,
      "Ġgiven": 2097,
      "idence": 2098,
      "Ġ26": 2099,
      "resent": 2100,
      "Ġupd": 2101,
      "ĠIntern": 2102,
      "Ġ2008": 2103,
      "Ġsimilar": 2104,
      "Ġstrong": 2105,
      "Ġcareer": 2106,
      "Ġbuilding": 2107,
      "Ġdraw": 2108,
      "der": 2109,
      "mit": 2110,
      "Ġpack": 2111,
      "oose": 2112,
      "Ġdeg": 2113,
      "Ġweeks": 2114,
      "Ġfilm": 2115,
      "Ġseems": 2116,
      "Ġvisit": 2117,
      "Ġhuman": 2118,
      "Ġhistory": 2119,
      "ournal": 2120,
      "ĠCalifornia": 2121,
      "iber": 2122,
      "ky": 2123,
      "sw": 2124,
      "Ġ#": 2125,
      "ĠX": 2126,
      "iter": 2127,
      "ask": 2128,
      "olic": 2129,
      "Ġexpl": 2130,
      "pecially": 2131,
      "Ġupon": 2132,
      "Ġimm": 2133,
      "Ġener": 2134,
      "ubs": 2135,
      "Ġcommun": 2136,
      "Ġissues": 2137,
      "Ġannoun": 2138,
      "Ġconcern": 2139,
      "ek": 2140,
      "ators": 2141,
      "Ġbreak": 2142,
      "Ġfair": 2143,
      "Ġhon": 2144,
      "Ġlate": 2145,
      "ĠMc": 2146,
      "ĠMiss": 2147,
      "Ġrather": 2148,
      "Ġ25": 2149,
      "Ġsuper": 2150,
      "ĠJapan": 2151,
      "Ġsubject": 2152,
      "attle": 2153,
      "Ġcontinue": 2154,
      "Ġpossible": 2155,
      "lf": 2156,
      "oe": 2157,
      "ole": 2158,
      "yr": 2159,
      "Ġopt": 2160,
      "Ġbad": 2161,
      "oud": 2162,
      "Ġeff": 2163,
      "ĠSu": 2164,
      "igan": 2165,
      "Ġanal": 2166,
      "Ġsearch": 2167,
      "ĠFacebook": 2168,
      "ĠNow": 2169,
      "Ġnothing": 2170,
      "aphim": 2171,
      "Ġclos": 2172,
      "avy": 2173,
      "ney": 2174,
      "minist": 2175,
      "ĠHowever": 2176,
      "Ġidea": 2177,
      "ĠSeraphim": 2178,
      "Ġwonder": 2179,
      "Al": 2180,
      "Ġwalk": 2181,
      "ites": 2182,
      "Ġbill": 2183,
      "Ġhtt": 2184,
      "ashing": 2185,
      "ĠAfter": 2186,
      "Ġ24": 2187,
      "Ġ27": 2188,
      "Ġalbum": 2189,
      "ips": 2190,
      "Ġcool": 2191,
      "Ġ2009": 2192,
      "Ġdecision": 2193,
      "duced": 2194,
      "Ġprobably": 2195,
      "CE": 2196,
      "How": 2197,
      "af": 2198,
      "ape": 2199,
      "Ġcases": 2200,
      "Ġdata": 2201,
      "asing": 2202,
      "ently": 2203,
      "amera": 2204,
      "Ġheld": 2205,
      "ĠPM": 2206,
      "ĠHouse": 2207,
      "Ġcannot": 2208,
      "Ġago": 2209,
      "Ġgets": 2210,
      "Ġrights": 2211,
      "Ġdiff": 2212,
      "Ġdeter": 2213,
      "Ġcampaign": 2214,
      "cription": 2215,
      "Ġsingle": 2216,
      "Ġtaken": 2217,
      "Ġsound": 2218,
      "ĠIm": 2219,
      "Ġbeaut": 2220,
      "ety": 2221,
      "urther": 2222,
      "Ġcomment": 2223,
      "ĠRed": 2224,
      "ĠNe": 2225,
      "Ġexc": 2226,
      "ival": 2227,
      "Ġtrue": 2228,
      "Ġanyone": 2229,
      "Ġplayers": 2230,
      "Ġfront": 2231,
      "AR": 2232,
      "come": 2233,
      "haps": 2234,
      "off": 2235,
      "Ġhig": 2236,
      "asc": 2237,
      "irit": 2238,
      "ĠPe": 2239,
      "ateg": 2240,
      "ĠNor": 2241,
      "resh": 2242,
      "ĠOb": 2243,
      "ivid": 2244,
      "Ġperiod": 2245,
      "ences": 2246,
      "Ġfinal": 2247,
      "ĠBlack": 2248,
      "Ġenergy": 2249,
      "gs": 2250,
      "ler": 2251,
      "pen": 2252,
      "Ġcra": 2253,
      "eng": 2254,
      "oura": 2255,
      "Ġplease": 2256,
      "Ġparent": 2257,
      "urb": 2258,
      "ille": 2259,
      "ĠMarch": 2260,
      "ĠBar": 2261,
      "ĠPres": 2262,
      "Ġris": 2263,
      "aby": 2264,
      "ĠGu": 2265,
      "ief": 2266,
      "Ġtrack": 2267,
      "Ġplaying": 2268,
      "ĠColle": 2269,
      "Ġpolitical": 2270,
      "14": 2271,
      "down": 2272,
      "Ġtest": 2273,
      "Ġface": 2274,
      "Ġnice": 2275,
      "ĠSchool": 2276,
      "urt": 2277,
      "verage": 2278,
      "Ġweb": 2279,
      "ĠFirst": 2280,
      "ĠDr": 2281,
      "ĠJune": 2282,
      "ague": 2283,
      "Ġsaw": 2284,
      "play": 2285,
      "Ġspend": 2286,
      "Ġreading": 2287,
      "Ġcharacter": 2288,
      "atural": 2289,
      "Ġtechnology": 2290,
      "Ġsales": 2291,
      "Ġeducation": 2292,
      "de": 2293,
      "ha": 2294,
      "Ġhost": 2295,
      "rop": 2296,
      "ĠAug": 2297,
      "Ġwhite": 2298,
      "ules": 2299,
      "ĠNorth": 2300,
      "Ġabs": 2301,
      "ago": 2302,
      "ublic": 2303,
      "Ġinde": 2304,
      "Ġrunning": 2305,
      "Ġspecific": 2306,
      "Ġquestions": 2307,
      "aught": 2308,
      "fully": 2309,
      "Ġaff": 2310,
      "Ġsense": 2311,
      "Ġways": 2312,
      "Ġdue": 2313,
      "ĠSar": 2314,
      "Ġstop": 2315,
      "ĠHis": 2316,
      "Ġleave": 2317,
      "Ġoutside": 2318,
      "Ġrecogn": 2319,
      "ĠSept": 2320,
      "Ġaccept": 2321,
      "Ġopin": 2322,
      "pril": 2323,
      "Ġhappy": 2324,
      "Ġrestrict": 2325,
      "Ġmovie": 2326,
      "Ġrecently": 2327,
      "Ġfavorite": 2328,
      "fact": 2329,
      "uation": 2330,
      "Ġer": 2331,
      "Ġsent": 2332,
      "Ġfall": 2333,
      "Ġpaper": 2334,
      "Ġmil": 2335,
      "Ġhom": 2336,
      "eth": 2337,
      "urity": 2338,
      "Ġstri": 2339,
      "Ġstaff": 2340,
      "ĠBu": 2341,
      "ĠPar": 2342,
      "ĠWest": 2343,
      "ĠDes": 2344,
      "Ġmeas": 2345,
      "Ġhowever": 2346,
      "Ġpoor": 2347,
      "Ġcolor": 2348,
      "duct": 2349,
      "Ġbooks": 2350,
      "Ġchanges": 2351,
      "18": 2352,
      "ris": 2353,
      "Ġtit": 2354,
      "itte": 2355,
      "orge": 2356,
      "Ġmess": 2357,
      "Ġant": 2358,
      "ĠPat": 2359,
      "ift": 2360,
      "Ġarch": 2361,
      "Ġoffice": 2362,
      "Ġrespect": 2363,
      "Ġspace": 2364,
      "mercial": 2365,
      "itten": 2366,
      "Ġ40": 2367,
      "Ġ197": 2368,
      "Ġpoints": 2369,
      "Ġrequired": 2370,
      "Ġespecially": 2371,
      "Ġpiece": 2372,
      "Ġsimply": 2373,
      "Ġindustry": 2374,
      "ĠAfric": 2375,
      "Ġdifficult": 2376,
      "SS": 2377,
      "ze": 2378,
      "Ġtouch": 2379,
      "Ġaction": 2380,
      "Ġbox": 2381,
      "icated": 2382,
      "lex": 2383,
      "ĠSome": 2384,
      "ĠServ": 2385,
      "Ġformer": 2386,
      "olution": 2387,
      "ceed": 2388,
      "Ġselect": 2389,
      "Ġconv": 2390,
      "Ġdev": 2391,
      "elt": 2392,
      "Ġplant": 2393,
      "Ġnecess": 2394,
      "Ġsoon": 2395,
      "Ġteac": 2396,
      "Ġgoal": 2397,
      "Ġcomput": 2398,
      "aching": 2399,
      "Ġattempt": 2400,
      "Ġinstall": 2401,
      "aur": 2402,
      "gest": 2403,
      "uary": 2404,
      "reme": 2405,
      "ese": 2406,
      "Ġdi": 2407,
      "Ġlink": 2408,
      "Ġnuclear": 2409,
      "Ġred": 2410,
      "ĠSouth": 2411,
      "vert": 2412,
      "Ġ22": 2413,
      "ocks": 2414,
      "Ġkids": 2415,
      "Ġtext": 2416,
      "onday": 2417,
      "Ġroad": 2418,
      "Ġconstit": 2419,
      "aturday": 2420,
      "medi": 2421,
      "Ġhttp": 2422,
      "ham": 2423,
      "uel": 2424,
      "Ġwind": 2425,
      "Ġcop": 2426,
      "Ġcause": 2427,
      "Ġfoot": 2428,
      "adem": 2429,
      "ctor": 2430,
      "Ġstuff": 2431,
      "irm": 2432,
      "ĠEl": 2433,
      "aged": 2434,
      "Ġmyself": 2435,
      "itect": 2436,
      "Ġlikely": 2437,
      "Ġcommon": 2438,
      "Ġindivid": 2439,
      "Ġmedia": 2440,
      "Ġofficial": 2441,
      "ĠWorld": 2442,
      "To": 2443,
      "ially": 2444,
      "Ġcult": 2445,
      "ederal": 2446,
      "Ġmob": 2447,
      "Ġinfl": 2448,
      "icago": 2449,
      "Ġlost": 2450,
      "Ġstat": 2451,
      "hern": 2452,
      "Ġconnect": 2453,
      "Ġdefe": 2454,
      "Ġcontent": 2455,
      "ibility": 2456,
      "Ġimpact": 2457,
      "Ġneeded": 2458,
      "Ġ50": 2459,
      "Ġregular": 2460,
      "Ġinstead": 2461,
      "ception": 2462,
      "Ġfocus": 2463,
      "aid": 2464,
      "put": 2465,
      "ĠÂ": 2466,
      "Ġtreat": 2467,
      "Ġap": 2468,
      "rem": 2469,
      "Ġwide": 2470,
      "Ġcat": 2471,
      "Ġbed": 2472,
      "Ġdig": 2473,
      "lement": 2474,
      "Ġliving": 2475,
      "ada": 2476,
      "ades": 2477,
      "Ġitem": 2478,
      "Ġste": 2479,
      "Ġsend": 2480,
      "ĠThese": 2481,
      "itted": 2482,
      "Ġevents": 2483,
      "Ġservices": 2484,
      "ĠAdd": 2485,
      "Ġestab": 2486,
      "Ġcurrently": 2487,
      "Ġimprove": 2488,
      "Ġsummer": 2489,
      "ashington": 2490,
      "lt": 2491,
      "light": 2492,
      "Ġ:": 2493,
      "Ġaut": 2494,
      "Ġbott": 2495,
      "lebr": 2496,
      "Ġlog": 2497,
      "Ġnet": 2498,
      "Ġrepl": 2499,
      "ĠApril": 2500,
      "ĠCont": 2501,
      "ĠDep": 2502,
      "ocr": 2503,
      "Ġcompan": 2504,
      "Ġthemselves": 2505,
      "obal": 2506,
      "Ġ199": 2507,
      "ĠFriday": 2508,
      "Ġcenter": 2509,
      "Ġbehind": 2510,
      "ĠTwitter": 2511,
      "ĠOctober": 2512,
      "AS": 2513,
      "aith": 2514,
      "wood": 2515,
      "Ġtakes": 2516,
      "ining": 2517,
      "rect": 2518,
      "Ġcle": 2519,
      "isher": 2520,
      "Ġmention": 2521,
      "ald": 2522,
      "Ġhu": 2523,
      "Ġey": 2524,
      "amb": 2525,
      "urance": 2526,
      "ĠPark": 2527,
      "Ġsust": 2528,
      "ĠEn": 2529,
      "ĠOff": 2530,
      "udd": 2531,
      "They": 2532,
      "Ġmanagement": 2533,
      "overed": 2534,
      "clus": 2535,
      "Ġspent": 2536,
      "Ġrepresent": 2537,
      "ĠChristian": 2538,
      "Ġresults": 2539,
      "Ġinvolved": 2540,
      "iddle": 2541,
      "ĠDavid": 2542,
      "17": 2543,
      "hood": 2544,
      "ires": 2545,
      "mail": 2546,
      "ror": 2547,
      "time": 2548,
      "Ġcirc": 2549,
      "Ġden": 2550,
      "ico": 2551,
      "aced": 2552,
      "ached": 2553,
      "ĠSci": 2554,
      "ĠMary": 2555,
      "ĠPart": 2556,
      "Ġ100": 2557,
      "Ġ28": 2558,
      "ively": 2559,
      "ĠJuly": 2560,
      "ĠEuro": 2561,
      "Ġusers": 2562,
      "Ġapplic": 2563,
      "Ġthinking": 2564,
      "Ġaccording": 2565,
      "Ġregard": 2566,
      "Ġshows": 2567,
      "Ġmedical": 2568,
      "Ġsurpr": 2569,
      "Ġlisten": 2570,
      "Ġparticip": 2571,
      "Ġcollege": 2572,
      "Ġlimited": 2573,
      "Ġfeatures": 2574,
      "ĠCollege": 2575,
      "like": 2576,
      "oom": 2577,
      "icks": 2578,
      "rote": 2579,
      "ĠAc": 2580,
      "ĠAg": 2581,
      "Ġheard": 2582,
      "Ġrad": 2583,
      "Ġadminist": 2584,
      "ĠStreet": 2585,
      "Ġparty": 2586,
      "ĠSec": 2587,
      "Ġcreated": 2588,
      "Ġpattern": 2589,
      "ĠWilliam": 2590,
      "Ġsuggest": 2591,
      "Ġdisease": 2592,
      "cast": 2593,
      "nes": 2594,
      "sc": 2595,
      "Ġwall": 2596,
      "Ġdam": 2597,
      "icro": 2598,
      "ĠSaturday": 2599,
      "ĠMark": 2600,
      "ĠBy": 2601,
      "cell": 2602,
      "ĠDay": 2603,
      "Ġdecl": 2604,
      "unt": 2605,
      "....": 2606,
      "Ġimage": 2607,
      "Ġprim": 2608,
      "ressed": 2609,
      "Ġrole": 2610,
      "Ġadded": 2611,
      "That": 2612,
      "Ġrelations": 2613,
      "ological": 2614,
      "Ġsaying": 2615,
      "Ġversion": 2616,
      "ST": 2617,
      "aily": 2618,
      "atives": 2619,
      "Ġmag": 2620,
      "lev": 2621,
      "Ġlat": 2622,
      "Ġlab": 2623,
      "Ġlov": 2624,
      "Ġyards": 2625,
      "iff": 2626,
      "Ġself": 2627,
      "Ġuser": 2628,
      "ovember": 2629,
      "aves": 2630,
      "erved": 2631,
      "Ġmaybe": 2632,
      "Ġincludes": 2633,
      "Ġdescrib": 2634,
      "Ġenter": 2635,
      "Ġdecided": 2636,
      "Ġposts": 2637,
      "Ġterms": 2638,
      "Ġtype": 2639,
      "Ġoriginal": 2640,
      "Ġcompanies": 2641,
      ");": 2642,
      "60": 2643,
      "OR": 2644,
      "OU": 2645,
      "ael": 2646,
      "oid": 2647,
      "ufact": 2648,
      "Ġtal": 2649,
      "Ġwedd": 2650,
      "Ġbody": 2651,
      "edy": 2652,
      "eter": 2653,
      "ĠChe": 2654,
      "amed": 2655,
      "Ġstra": 2656,
      "Ġsepar": 2657,
      "Ġdeath": 2658,
      "ung": 2659,
      "Ġvi": 2660,
      "Ġclick": 2661,
      "Ġquality": 2662,
      "Ġplayer": 2663,
      "Ġstudy": 2664,
      "Ġdefin": 2665,
      "Ġprivate": 2666,
      "200": 2667,
      "Or": 2668,
      "With": 2669,
      "Ġ/": 2670,
      "onse": 2671,
      "ester": 2672,
      "ental": 2673,
      "Ġredu": 2674,
      "ĠWar": 2675,
      "ĠWashington": 2676,
      "Ġ21": 2677,
      "ĠGo": 2678,
      "ocu": 2679,
      "ĠChicago": 2680,
      "ĠWell": 2681,
      "rows": 2682,
      "ĠNews": 2683,
      "Ġreceive": 2684,
      "Ġorganization": 2685,
      "Ġpurp": 2686,
      "EN": 2687,
      "my": 2688,
      "Ġill": 2689,
      "onst": 2690,
      "Ġpull": 2691,
      "arily": 2692,
      "asons": 2693,
      "Ġlives": 2694,
      "ĠSan": 2695,
      "ĠMonday": 2696,
      "Ġansw": 2697,
      "iful": 2698,
      "Ġrate": 2699,
      "istic": 2700,
      "antly": 2701,
      "ivil": 2702,
      "Ġspirit": 2703,
      "aving": 2704,
      "ancy": 2705,
      "Ġcollect": 2706,
      "Ġattack": 2707,
      "Ġfunction": 2708,
      "Ġleaders": 2709,
      "ittee": 2710,
      "AA": 2711,
      "dd": 2712,
      "sy": 2713,
      "uk": 2714,
      "Ġsize": 2715,
      "Ġinit": 2716,
      "omb": 2717,
      "Ġnatural": 2718,
      "Ġgas": 2719,
      "lying": 2720,
      "ĠSw": 2721,
      "ĠTH": 2722,
      "Ġareas": 2723,
      "pped": 2724,
      "Ġchurch": 2725,
      "oston": 2726,
      "astic": 2727,
      "Ġcontact": 2728,
      "ĠChurch": 2729,
      "Ġprices": 2730,
      "ĠHere": 2731,
      "Ġbecame": 2732,
      "Ġworked": 2733,
      "ruction": 2734,
      "ĠVal": 2735,
      "Ġhimself": 2736,
      "Ġlooks": 2737,
      "Ġaddition": 2738,
      "Ġ198": 2739,
      "Ġlonger": 2740,
      "hips": 2741,
      "Ġmedic": 2742,
      "Ġpositive": 2743,
      "ĠJanuary": 2744,
      "ĠObama": 2745,
      "Re": 2746,
      "ls": 2747,
      "nam": 2748,
      "set": 2749,
      "where": 2750,
      "erve": 2751,
      "Ġsle": 2752,
      "Ġwrote": 2753,
      "Ġcoun": 2754,
      "Ġband": 2755,
      "ĠAust": 2756,
      "Ġitself": 2757,
      "Ġstates": 2758,
      "ĠPost": 2759,
      "kend": 2760,
      "ĠDo": 2761,
      "ĠDon": 2762,
      "ulation": 2763,
      "Ġvol": 2764,
      "Ġchoose": 2765,
      "oday": 2766,
      "Ġimmedi": 2767,
      "Ġoffers": 2768,
      "Ġquarter": 2769,
      "ensation": 2770,
      "ĠWhile": 2771,
      "Ġnumbers": 2772,
      "Ġsystems": 2773,
      "Ġprograms": 2774,
      "Ġcelebr": 2775,
      "ĠAssoci": 2776,
      "Ġsoftware": 2777,
      "ĠEurope": 2778,
      "ae": 2779,
      "gers": 2780,
      "Ġaud": 2781,
      "Ġsort": 2782,
      "Ġfix": 2783,
      "aries": 2784,
      "Ġdocu": 2785,
      "ĠMus": 2786,
      "riage": 2787,
      "Ġ23": 2788,
      "Ġjud": 2789,
      "aker": 2790,
      "Ġtrade": 2791,
      "ĠYear": 2792,
      "Ġresources": 2793,
      "Ġfeet": 2794,
      "Ġteams": 2795,
      "Ġinterview": 2796,
      "Ġhands": 2797,
      "Ġjobs": 2798,
      "Ġtried": 2799,
      "Ġturned": 2800,
      "Ġwrite": 2801,
      "porary": 2802,
      "Ġreceived": 2803,
      "Ġpopular": 2804,
      "ursday": 2805,
      "Ġeconomic": 2806,
      "Ġmoment": 2807,
      "Ġencoura": 2808,
      "Ġsweet": 2809,
      "Ġcomputer": 2810,
      "now": 2811,
      "tain": 2812,
      "Ġsold": 2813,
      "Ġfurther": 2814,
      "Ġfresh": 2815,
      "icles": 2816,
      "ady": 2817,
      "ams": 2818,
      "Ġseven": 2819,
      "Ġchoice": 2820,
      "rap": 2821,
      "Ġworth": 2822,
      "ĠYour": 2823,
      "Ġscience": 2824,
      "Ġsignific": 2825,
      "Ġproduction": 2826,
      "ĠIsland": 2827,
      "Ġwritten": 2828,
      "Ġprojects": 2829,
      "Ġdrink": 2830,
      "ĠCenter": 2831,
      "Ġhigher": 2832,
      "Ġhuge": 2833,
      "IT": 2834,
      "che": 2835,
      "lim": 2836,
      "Ġoption": 2837,
      "Ġcal": 2838,
      "Ġcode": 2839,
      "Ġfit": 2840,
      "Ġinn": 2841,
      "Ġdiv": 2842,
      "utions": 2843,
      "otion": 2844,
      "ĠTur": 2845,
      "Ġstyle": 2846,
      "iller": 2847,
      "Ġcommercial": 2848,
      "ĠRober": 2849,
      "Ġdepend": 2850,
      "ĠJack": 2851,
      "aging": 2852,
      "Ġyourself": 2853,
      "ĠThom": 2854,
      "Ġmanufact": 2855,
      "Ġpray": 2856,
      "rugg": 2857,
      "ishing": 2858,
      "Ġgrad": 2859,
      "ancial": 2860,
      "Ġconsum": 2861,
      "ĠArt": 2862,
      "Ġfamil": 2863,
      "Ġgroups": 2864,
      "Ġestate": 2865,
      "Ġideas": 2866,
      "Ġposition": 2867,
      "Ġpicture": 2868,
      "ĠPalin": 2869,
      "ĠAugust": 2870,
      "Ġlatest": 2871,
      "No": 2872,
      "zz": 2873,
      "erc": 2874,
      "itch": 2875,
      "Ġboy": 2876,
      "Ġfre": 2877,
      "Ġmis": 2878,
      "arning": 2879,
      "ĠCath": 2880,
      "Ġrange": 2881,
      "ĠRob": 2882,
      "ĠNet": 2883,
      "ĠNovember": 2884,
      "Ġalle": 2885,
      "ĠOur": 2886,
      "Ġjoin": 2887,
      "ĠUs": 2888,
      "Ġargu": 2889,
      "iple": 2890,
      "Ġbecom": 2891,
      "ĠComp": 2892,
      "Ġsometimes": 2893,
      "Ġruns": 2894,
      "Ġinside": 2895,
      "ledge": 2896,
      "ĠBlog": 2897,
      "Ġcarry": 2898,
      "Ġmember": 2899,
      "Ġextra": 2900,
      "Ġwoman": 2901,
      "Ġsimple": 2902,
      "Ġpressure": 2903,
      "Ġwedding": 2904,
      "All": 2905,
      "cil": 2906,
      "round": 2907,
      "xx": 2908,
      "Ġcard": 2909,
      "Ġfight": 2910,
      "Ġmix": 2911,
      "Ġhor": 2912,
      "Ġdom": 2913,
      "lling": 2914,
      "Ġearn": 2915,
      "ĠAv": 2916,
      "Ġforward": 2917,
      "atever": 2918,
      "ĠThen": 2919,
      "raft": 2920,
      "Ġsaf": 2921,
      "Ġens": 2922,
      "ĠKe": 2923,
      "Ġscreen": 2924,
      "Ġthroughout": 2925,
      "Ġguy": 2926,
      "Ġweekend": 2927,
      "Ġrelig": 2928,
      "ĠWhite": 2929,
      "Ġfinally": 2930,
      "Ġslow": 2931,
      "Here": 2932,
      "Ġcontinu": 2933,
      "Ġresponse": 2934,
      "Ġmeeting": 2935,
      "Ġproducts": 2936,
      "ĠFeb": 2937,
      "ĠSeptember": 2938,
      "23": 2939,
      "My": 2940,
      "ees": 2941,
      "ny": 2942,
      "erman": 2943,
      "Ġinj": 2944,
      "ĠCor": 2945,
      "Ġhear": 2946,
      "Ġstories": 2947,
      "Ġsex": 2948,
      "Ġdead": 2949,
      "Ġsubs": 2950,
      "ĠGener": 2951,
      "ude": 2952,
      "ivity": 2953,
      "idered": 2954,
      "Ġsafe": 2955,
      "Ġknew": 2956,
      "angu": 2957,
      "Ġcoll": 2958,
      "Ġcolors": 2959,
      "Ġkept": 2960,
      "Ġguys": 2961,
      "ĠSee": 2962,
      "Ġemb": 2963,
      "Ġpresident": 2964,
      "Ġintegr": 2965,
      "Ġstarting": 2966,
      "ĠAnn": 2967,
      "Ġinsp": 2968,
      "Ġmodern": 2969,
      "Ġwrong": 2970,
      "Ġdirector": 2971,
      "Ġvarious": 2972,
      "Ġdrive": 2973,
      "Ġetc": 2974,
      "Ġcompetition": 2975,
      "Ġprotect": 2976,
      "Ġtotal": 2977,
      "Ġmobile": 2978,
      "LE": 2979,
      "aul": 2980,
      "ford": 2981,
      "field": 2982,
      "gen": 2983,
      "gle": 2984,
      "mm": 2985,
      "Ġsource": 2986,
      "itary": 2987,
      "isions": 2988,
      "oring": 2989,
      "Ġfans": 2990,
      "anch": 2991,
      "Ġmach": 2992,
      "Ġdate": 2993,
      "Ġnational": 2994,
      "Ġbegan": 2995,
      "ĠMex": 2996,
      "ĠPol": 2997,
      "Ġcomfort": 2998,
      "Ġexact": 2999,
      "ĠEric": 3000,
      "Ġlearning": 3001,
      "âĢĿ.": 3002,
      "uburn": 3003,
      "Ġrespons": 3004,
      "Ġcosts": 3005,
      "ecut": 3006,
      "Ġregulation": 3007,
      "Ġpractice": 3008,
      "Ġmorning": 3009,
      "Ġarchitect": 3010,
      "Ġsustain": 3011,
      "22": 3012,
      "One": 3013,
      "ech": 3014,
      "yond": 3015,
      "Ã©": 3016,
      "Ġ,": 3017,
      "inally": 3018,
      "erry": 3019,
      "Ġsom": 3020,
      "Ġwarm": 3021,
      "Ġobs": 3022,
      "Ġcup": 3023,
      "Ġfem": 3024,
      "Ġfast": 3025,
      "Ġpan": 3026,
      "Ġmat": 3027,
      "Ġmass": 3028,
      "Ġhy": 3029,
      "Ġnorm": 3030,
      "idge": 3031,
      "Ġstar": 3032,
      "Ġvote": 3033,
      "earch": 3034,
      "ĠInc": 3035,
      "Ġsched": 3036,
      "Ġbuilt": 3037,
      "Ġremember": 3038,
      "Ġready": 3039,
      "Ġserious": 3040,
      "Ġterm": 3041,
      "Ġtalking": 3042,
      "Ġcomplainant": 3043,
      "Ġreleased": 3044,
      "Ġprofessional": 3045,
      "ĠiPh": 3046,
      "ĠDepartment": 3047,
      "Ġviol": 3048,
      "48": 3049,
      "73": 3050,
      "eal": 3051,
      "pri": 3052,
      "uit": 3053,
      "val": 3054,
      "Ġach": 3055,
      "Ġaffect": 3056,
      "orrow": 3057,
      "arget": 3058,
      "Ġoffe": 3059,
      "Ġdied": 3060,
      "Ġled": 3061,
      "Ġult": 3062,
      "ĠBoston": 3063,
      "ĠHigh": 3064,
      "ĠOh": 3065,
      "Ġdoor": 3066,
      "ĠThursday": 3067,
      "Ġprep": 3068,
      "Ġbright": 3069,
      "Ġincluded": 3070,
      "uesday": 3071,
      "Ġprior": 3072,
      "ĠApple": 3073,
      "Ġoccur": 3074,
      "Ġexpected": 3075,
      "Ġbottom": 3076,
      "king": 3077,
      "oly": 3078,
      "Ġtast": 3079,
      "Ġsat": 3080,
      "Ġcred": 3081,
      "itiz": 3082,
      "isc": 3083,
      "ĠII": 3084,
      "Ġemer": 3085,
      "ĠSy": 3086,
      "ĠAct": 3087,
      "ĠCap": 3088,
      "urg": 3089,
      "Ġstock": 3090,
      "irth": 3091,
      "ĠMin": 3092,
      "Ġprogress": 3093,
      "Ġvict": 3094,
      "ĠJe": 3095,
      "Ġability": 3096,
      "rael": 3097,
      "ĠStud": 3098,
      "ccording": 3099,
      "Ġdownload": 3100,
      "Ġdefense": 3101,
      "Ġinteresting": 3102,
      "Ġschools": 3103,
      "Ġdemand": 3104,
      "tended": 3105,
      "Ġincrease": 3106,
      "Ġquickly": 3107,
      "Ġfigure": 3108,
      "ibrary": 3109,
      "Ġtitle": 3110,
      "Ġsafety": 3111,
      "Posted": 3112,
      "based": 3113,
      "hib": 3114,
      "reci": 3115,
      "erous": 3116,
      "Ġsqu": 3117,
      "Ġsale": 3118,
      "Ġcaught": 3119,
      "Ġbird": 3120,
      "Ġmid": 3121,
      "ĠSen": 3122,
      "Ġund": 3123,
      "ĠMac": 3124,
      "ĠDan": 3125,
      "ĠDem": 3126,
      "ĠOpen": 3127,
      "itely": 3128,
      "Ġcontribut": 3129,
      "Ġperhaps": 3130,
      "iction": 3131,
      "Ġconsidered": 3132,
      "Ġstudent": 3133,
      "Ġassum": 3134,
      "Ġassoci": 3135,
      "Ġordin": 3136,
      "Ġglobal": 3137,
      "Ġallowed": 3138,
      "Ġbeginning": 3139,
      "Ġpotential": 3140,
      "Ġopportunity": 3141,
      "Ġscientists": 3142,
      "ĠMichael": 3143,
      "Ġcommunic": 3144,
      "Ġdetermin": 3145,
      "Ġbeautiful": 3146,
      "Ġparents": 3147,
      "Ġopinion": 3148,
      "Ġinflu": 3149,
      "25": 3150,
      "She": 3151,
      "got": 3152,
      "ray": 3153,
      "Ġess": 3154,
      "Ġton": 3155,
      "Ġaw": 3156,
      "Ġaverage": 3157,
      "Ġcross": 3158,
      "alt": 3159,
      "ĠSch": 3160,
      "ĠSund": 3161,
      "ett": 3162,
      "irgin": 3163,
      "Ġexplain": 3164,
      "oses": 3165,
      "osing": 3166,
      "izing": 3167,
      "Ġscore": 3168,
      "Ġrecomm": 3169,
      "Ġblood": 3170,
      "Ġbrought": 3171,
      "Ġwants": 3172,
      "Ġsecurity": 3173,
      "Ġprovided": 3174,
      "Ġassist": 3175,
      "Ġpatients": 3176,
      "Ġreported": 3177,
      "Ġallows": 3178,
      "ipping": 3179,
      "ĠGroup": 3180,
      "Ġphoto": 3181,
      "ructure": 3182,
      "aughter": 3183,
      "Ġrecommend": 3184,
      "AD": 3185,
      "lier": 3186,
      "Ġbaby": 3187,
      "ednes": 3188,
      "Ġlack": 3189,
      "ented": 3190,
      "Ġgen": 3191,
      "rown": 3192,
      "iger": 3193,
      "ĠMore": 3194,
      "ĠRich": 3195,
      "aint": 3196,
      "ĠLa": 3197,
      "Ġplans": 3198,
      "Ġplants": 3199,
      "Ġarri": 3200,
      "Ġfeature": 3201,
      "Ġcover": 3202,
      "Ġcorrect": 3203,
      "Ġsituation": 3204,
      "ĠSmith": 3205,
      "ĠArchi": 3206,
      "ĠAfrican": 3207,
      "AL": 3208,
      "iants": 3209,
      "ming": 3210,
      "mas": 3211,
      "oke": 3212,
      "Ġut": 3213,
      "Ġten": 3214,
      "Ġsun": 3215,
      "ato": 3216,
      "isl": 3217,
      "Ġfaith": 3218,
      "Ġinm": 3219,
      "Ġloss": 3220,
      "Ġlower": 3221,
      "ĠInt": 3222,
      "ĠSpe": 3223,
      "idents": 3224,
      "amad": 3225,
      "imately": 3226,
      "verse": 3227,
      "olute": 3228,
      "ĠMon": 3229,
      "Ġrace": 3230,
      "Ġcomments": 3231,
      "uses": 3232,
      "Ġnote": 3233,
      "ĠEven": 3234,
      "Ġjournal": 3235,
      "Ġneigh": 3236,
      "Ġusually": 3237,
      "Ġadult": 3238,
      "Ġwhose": 3239,
      "Ġtend": 3240,
      "Ġoffensive": 3241,
      "Ġcompensation": 3242,
      "ĠKore": 3243,
      "ibly": 3244,
      "ruary": 3245,
      "Ġguess": 3246,
      "Ġprovides": 3247,
      "airs": 3248,
      "ification": 3249,
      "ĠAnge": 3250,
      "utional": 3251,
      "Ġeasily": 3252,
      "Ġcompletely": 3253,
      "Ġpurchase": 3254,
      "Ġwait": 3255,
      "evin": 3256,
      "Ġactivities": 3257,
      "ĠPresident": 3258,
      "Ġindepend": 3259,
      "Ġdefend": 3260,
      "Ġstraight": 3261,
      "sych": 3262,
      "ĠiPhone": 3263,
      "Ġachie": 3264,
      "Get": 3265,
      "bit": 3266,
      "cut": 3267,
      "house": 3268,
      "iar": 3269,
      "ius": 3270,
      "yan": 3271,
      "zy": 3272,
      "hel": 3273,
      "Ġson": 3274,
      "Ġwife": 3275,
      "Ġcatch": 3276,
      "itar": 3277,
      "Ġfather": 3278,
      "Ġmother": 3279,
      "Ġmatch": 3280,
      "Ġhosp": 3281,
      "Ġdest": 3282,
      "Ġthreat": 3283,
      "Ġnation": 3284,
      "ĠSoc": 3285,
      "ida": 3286,
      "ĠAir": 3287,
      "ĠBig": 3288,
      "cember": 3289,
      "ĠWil": 3290,
      "ession": 3291,
      "ĠLove": 3292,
      "Ġexam": 3293,
      "outhern": 3294,
      "ĠOf": 3295,
      "Ġjump": 3296,
      "Ġgoes": 3297,
      "izes": 3298,
      "ondon": 3299,
      "Ġparts": 3300,
      "Ġfell": 3301,
      "Ġknowledge": 3302,
      "Ġcouldn": 3303,
      "Ġposted": 3304,
      "gins": 3305,
      "Ġfeeling": 3306,
      "Ġrestaur": 3307,
      "Ġvaccine": 3308,
      "ĠRepublic": 3309,
      "Ġrisk": 3310,
      "Ġmessage": 3311,
      "Ġnecessary": 3312,
      "Ġclean": 3313,
      "ednesday": 3314,
      "**": 3315,
      "16": 3316,
      "24": 3317,
      "80": 3318,
      "Fr": 3319,
      "cher": 3320,
      "mar": 3321,
      "Ġfelt": 3322,
      "Ġpred": 3323,
      "Ġtom": 3324,
      "Ġmiddle": 3325,
      "ales": 3326,
      "Ġlik": 3327,
      "Ġren": 3328,
      "Ġrelease": 3329,
      "ĠIr": 3330,
      "Ġgives": 3331,
      "Ġgreen": 3332,
      "Ġones": 3333,
      "ĠAM": 3334,
      "owl": 3335,
      "iring": 3336,
      "Ġwhis": 3337,
      "Ġhair": 3338,
      "istics": 3339,
      "ights": 3340,
      "ĠOut": 3341,
      "Ġplaces": 3342,
      "Ġwouldn": 3343,
      "Ġappreci": 3344,
      "ĠRec": 3345,
      "coming": 3346,
      "Ġexperi": 3347,
      "Ġobject": 3348,
      "Ġcorpor": 3349,
      "Ġappropri": 3350,
      "Ġannual": 3351,
      "ipped": 3352,
      "Ġmarriage": 3353,
      "Ġpieces": 3354,
      "Ġsuccessful": 3355,
      "Ġhappened": 3356,
      "Ġdoub": 3357,
      "Ġannounced": 3358,
      "Ġsignificant": 3359,
      "aven": 3360,
      "body": 3361,
      "cer": 3362,
      "cause": 3363,
      "eah": 3364,
      "ville": 3365,
      "Ġcand": 3366,
      "Ġbirth": 3367,
      "Ġfire": 3368,
      "Ġfarm": 3369,
      "Ġpath": 3370,
      "Ġtown": 3371,
      "Ġmiles": 3372,
      "arr": 3373,
      "enty": 3374,
      "Ġgar": 3375,
      "Ġbeyond": 3376,
      "ĠSup": 3377,
      "ĠMod": 3378,
      "ĠMike": 3379,
      "ĠPri": 3380,
      "Ġaren": 3381,
      "rial": 3382,
      "ander": 3383,
      "ĠGold": 3384,
      "ĠJames": 3385,
      "ĠEvery": 3386,
      "ocol": 3387,
      "ĠInst": 3388,
      "ĠHealth": 3389,
      "ground": 3390,
      "Ġlooked": 3391,
      "Ġ60": 3392,
      "Ġfinancial": 3393,
      "Ġcounty": 3394,
      "Ġcountries": 3395,
      "ĠProf": 3396,
      "ĠJohnson": 3397,
      "Ġinterested": 3398,
      "Ġstandard": 3399,
      "ĠCommittee": 3400,
      "ĠTramad": 3401,
      "ĠPhill": 3402,
      "ĠAbil": 3403,
      "ĠEnglish": 3404,
      "Ġindividual": 3405,
      "ĠThomas": 3406,
      "ĠCatholic": 3407,
      "ĠTramadol": 3408,
      "?âĢĿ": 3409,
      "After": 3410,
      "Bl": 3411,
      "KS": 3412,
      "bl": 3413,
      "gency": 3414,
      "ugg": 3415,
      "Ġ@": 3416,
      "Ġx": 3417,
      "Ġtable": 3418,
      "Ġtarget": 3419,
      "rel": 3420,
      "Ġbal": 3421,
      "Ġhous": 3422,
      "Ġdru": 3423,
      "Ġnature": 3424,
      "Ġnamed": 3425,
      "iment": 3426,
      "oogle": 3427,
      "Ġsection": 3428,
      "ĠRSS": 3429,
      "rief": 3430,
      "unk": 3431,
      "ĠLife": 3432,
      "Ġexcell": 3433,
      "umn": 3434,
      "ĠJim": 3435,
      "Ġshot": 3436,
      "Ġshall": 3437,
      "Ġplat": 3438,
      "odox": 3439,
      "Ġbutter": 3440,
      "action": 3441,
      "Ġclimate": 3442,
      "ĠKing": 3443,
      "Ġunique": 3444,
      "Ġapply": 3445,
      "Ġpartners": 3446,
      "Ġground": 3447,
      "Ġflood": 3448,
      "Ġphone": 3449,
      "Ġrelated": 3450,
      "Ġsecret": 3451,
      "Ġevidence": 3452,
      "Ġattention": 3453,
      "Ġpublished": 3454,
      "ĠFranc": 3455,
      "Ġserved": 3456,
      "ĠIsrael": 3457,
      "Ġeffects": 3458,
      "Ġdirectly": 3459,
      "Ġorganiz": 3460,
      "Ġlimit": 3461,
      "Ġnearly": 3462,
      "Ġburied": 3463,
      "Ġinternational": 3464,
      "Ġmilitary": 3465,
      "Ġsomew": 3466,
      "27": 3467,
      "55": 3468,
      "Be": 3469,
      "Sh": 3470,
      "face": 3471,
      "rick": 3472,
      "vent": 3473,
      "ero": 3474,
      "Ġsen": 3475,
      "Ġwat": 3476,
      "Ġoil": 3477,
      "Ġbo": 3478,
      "Ġbillion": 3479,
      "Ġboard": 3480,
      "Ġfederal": 3481,
      "Ġpers": 3482,
      "Ġdro": 3483,
      "Ġlif": 3484,
      "Ġliter": 3485,
      "Ġrev": 3486,
      "ĠAre": 3487,
      "ament": 3488,
      "imum": 3489,
      "ĠMart": 3490,
      "ĠBay": 3491,
      "ĠBra": 3492,
      "illing": 3493,
      "Ġproduc": 3494,
      "thodox": 3495,
      "ĠLum": 3496,
      "ĠGreen": 3497,
      "Ġshopp": 3498,
      "Ġdoll": 3499,
      "Ġsave": 3500,
      "plic": 3501,
      "Ġimages": 3502,
      "ucoph": 3503,
      "Ġourselves": 3504,
      "Ġfeed": 3505,
      "Ġamaz": 3506,
      "Ġ2007": 3507,
      "Ġacqu": 3508,
      "Ġsett": 3509,
      "Ġfollowed": 3510,
      "Ġtrip": 3511,
      "Ġdetails": 3512,
      "Ġcentury": 3513,
      "Ġtravel": 3514,
      "Ġreflect": 3515,
      "Ġpresented": 3516,
      "Ġphotos": 3517,
      "Ġsites": 3518,
      "Ġinvestment": 3519,
      "Ġmeth": 3520,
      "Ġgrowth": 3521,
      "Ġengine": 3522,
      "stitute": 3523,
      "ĠGlucoph": 3524,
      "Ġagreement": 3525,
      "ography": 3526,
      "Ġwonderful": 3527,
      "ĠAustral": 3528,
      "ĠSunday": 3529,
      "ĠAbilify": 3530,
      "ĠGlucophage": 3531,
      "33": 3532,
      "Is": 3533,
      "cle": 3534,
      "gar": 3535,
      "ii": 3536,
      "iable": 3537,
      "more": 3538,
      "name": 3539,
      "sp": 3540,
      "under": 3541,
      "wise": 3542,
      "Ġsens": 3543,
      "ises": 3544,
      "isco": 3545,
      "Ġfirm": 3546,
      "Ġple": 3547,
      "Ġdry": 3548,
      "Ġnorth": 3549,
      "Ġreb": 3550,
      "Ġgra": 3551,
      "ĠTuesday": 3552,
      "ĠAuburn": 3553,
      "Ġheavy": 3554,
      "ĠMat": 3555,
      "ĠBrit": 3556,
      "illa": 3557,
      "ĠPort": 3558,
      "ĠFI": 3559,
      "Ġround": 3560,
      "ĠRel": 3561,
      "pper": 3562,
      "Ġspring": 3563,
      "Ġblue": 3564,
      "Ġimplement": 3565,
      "Ġspeed": 3566,
      "Ġconsist": 3567,
      "Ġhelped": 3568,
      "Ġremain": 3569,
      "ysis": 3570,
      "Ġstudies": 3571,
      "Ġpolice": 3572,
      "Why": 3573,
      "Ġeasier": 3574,
      "Ġobv": 3575,
      "Ġintro": 3576,
      "useum": 3577,
      "Ġeconomy": 3578,
      "Ġtraditional": 3579,
      "Ġwriting": 3580,
      "Ġcondition": 3581,
      "reedom": 3582,
      "Ġactivity": 3583,
      "Ġcustomers": 3584,
      "ĠInternational": 3585,
      "ength": 3586,
      "Ġdefinitely": 3587,
      "Ġanswer": 3588,
      "ĠTHE": 3589,
      "ĠFebruary": 3590,
      "ĠLumigan": 3591,
      "Ġmethod": 3592,
      "05": 3593,
      "40": 3594,
      "99": 3595,
      "AC": 3596,
      "FL": 3597,
      "IS": 3598,
      "OT": 3599,
      "Our": 3600,
      "bon": 3601,
      "band": 3602,
      "just": 3603,
      "pite": 3604,
      "Ġcivil": 3605,
      "Ġdaily": 3606,
      "Ġlangu": 3607,
      "Ġegg": 3608,
      "ado": 3609,
      "imin": 3610,
      "Ġstrugg": 3611,
      "Ġwhatever": 3612,
      "ĠWind": 3613,
      "Ġrout": 3614,
      "ĠNY": 3615,
      "ĠLou": 3616,
      "ĠLondon": 3617,
      "Ġchamp": 3618,
      "Ġalthough": 3619,
      "udget": 3620,
      "Ġqual": 3621,
      "Ġagent": 3622,
      "Ġgrand": 3623,
      "rences": 3624,
      "enced": 3625,
      "Ġstatement": 3626,
      "Ġserve": 3627,
      "ashion": 3628,
      "ĠOrthodox": 3629,
      "ĠPhil": 3630,
      "Ġdesigned": 3631,
      "Ġvaccines": 3632,
      "Ġappears": 3633,
      "Ġhonest": 3634,
      "Ġeffort": 3635,
      "ĠBuy": 3636,
      "Ġofficials": 3637,
      "Ġitems": 3638,
      "Ġimmediately": 3639,
      "Cl": 3640,
      "OW": 3641,
      "Press": 3642,
      "ault": 3643,
      "range": 3644,
      "word": 3645,
      "Ġice": 3646,
      "Ġaward": 3647,
      "rees": 3648,
      "ita": 3649,
      "Ġpages": 3650,
      "Ġthrow": 3651,
      "lection": 3652,
      "Ġluck": 3653,
      "vere": 3654,
      "Ġgiving": 3655,
      "Ġeight": 3656,
      "ĠSam": 3657,
      "ĠTV": 3658,
      "ĠCamera": 3659,
      "add": 3660,
      "igation": 3661,
      "ĠMag": 3662,
      "ĠWednesday": 3663,
      "Ġrates": 3664,
      "Ġconduct": 3665,
      "anted": 3666,
      "Ġchap": 3667,
      "Ġtruly": 3668,
      "Ġimag": 3669,
      "Ġappl": 3670,
      "Ġoverall": 3671,
      "ĠWeb": 3672,
      "Ġrock": 3673,
      "Ġspeak": 3674,
      "well": 3675,
      "ĠReg": 3676,
      "ĠRead": 3677,
      "Ġhighly": 3678,
      "Ġgeneration": 3679,
      "Ġearth": 3680,
      "Ġmoved": 3681,
      "Ġprevious": 3682,
      "Ġcertainly": 3683,
      "olesale": 3684,
      "Ġchallenge": 3685,
      "Ġbenefits": 3686,
      "Ġdouble": 3687,
      "Please": 3688,
      "Se": 3689,
      "chers": 3690,
      "gl": 3691,
      "gn": 3692,
      "tic": 3693,
      "uct": 3694,
      "vest": 3695,
      "Ġsus": 3696,
      "Ġsouth": 3697,
      "Ġbi": 3698,
      "ened": 3699,
      "ana": 3700,
      "Ġtoward": 3701,
      "Ġreach": 3702,
      "ĠId": 3703,
      "ĠCong": 3704,
      "ĠPet": 3705,
      "ĠFrom": 3706,
      "Ġrules": 3707,
      "ĠDen": 3708,
      "ĠDirect": 3709,
      "Ġconvers": 3710,
      "ĠRE": 3711,
      "Ġvia": 3712,
      "Ġsuff": 3713,
      "Ġalone": 3714,
      "osition": 3715,
      "ocal": 3716,
      "ĠâĢ¦": 3717,
      "Ġtrust": 3718,
      "place": 3719,
      "Ġdisplay": 3720,
      "Ġspeech": 3721,
      "rench": 3722,
      "Ġbride": 3723,
      "Ġadditional": 3724,
      "Ġindic": 3725,
      "Ġproviding": 3726,
      "undred": 3727,
      "Ġleading": 3728,
      "Ġearlier": 3729,
      "!!!": 3730,
      "Ġtrial": 3731,
      "Ġreports": 3732,
      "Ġadvant": 3733,
      "Ġsociety": 3734,
      "Ġchanged": 3735,
      "Ġesc": 3736,
      "ĠCanada": 3737,
      "cript": 3738,
      "orgia": 3739,
      "ĠFlor": 3740,
      "Ġbenefit": 3741,
      "Ġpictures": 3742,
      "Ġmultiple": 3743,
      "ĠService": 3744,
      "Ġreduce": 3745,
      "Ġsleep": 3746,
      "Ġexactly": 3747,
      "Ġneighbor": 3748,
      "OM": 3749,
      "VD": 3750,
      "VE": 3751,
      "hop": 3752,
      "iel": 3753,
      "iance": 3754,
      "ken": 3755,
      "rad": 3756,
      "yles": 3757,
      "Ġ...": 3758,
      "Ġtick": 3759,
      "Ġsil": 3760,
      "Ġcitiz": 3761,
      "Ġbag": 3762,
      "Ġbought": 3763,
      "Ġbrows": 3764,
      "oul": 3765,
      "Ġfine": 3766,
      "Ġded": 3767,
      "Ġlines": 3768,
      "ĠSpr": 3769,
      "Ġisland": 3770,
      "ĠCoun": 3771,
      "ils": 3772,
      "ĠMor": 3773,
      "change": 3774,
      "ĠBill": 3775,
      "Ġwel": 3776,
      "ĠPaul": 3777,
      "Ġ29": 3778,
      "unte": 3779,
      "ĠGreat": 3780,
      "Ġexcept": 3781,
      "arden": 3782,
      "Ġtruth": 3783,
      "Ġgoals": 3784,
      "Ġoffering": 3785,
      "Ġperm": 3786,
      "ĠVirgin": 3787,
      "Ġprem": 3788,
      "Ġowners": 3789,
      "Ġentry": 3790,
      "ĠDecember": 3791,
      "Ġhappens": 3792,
      "Ġlots": 3793,
      "Ġleader": 3794,
      "Ġlocated": 3795,
      "Ġmodels": 3796,
      "Ġstandards": 3797,
      "Ġprevent": 3798,
      "Ġhistor": 3799,
      "which": 3800,
      "Ġlearned": 3801,
      "Ġparticularly": 3802,
      "Ġcomplaint": 3803,
      "Ġmentioned": 3804,
      "Ġadministration": 3805,
      "ĠGeneral": 3806,
      "):": 3807,
      "Ex": 3808,
      "IC": 3809,
      "Now": 3810,
      "TS": 3811,
      "lant": 3812,
      "mon": 3813,
      "Ġtour": 3814,
      "inn": 3815,
      "Ġwww": 3816,
      "esus": 3817,
      "Ġmist": 3818,
      "Ġdark": 3819,
      "iced": 3820,
      "Ġrent": 3821,
      "Ġgone": 3822,
      "acr": 3823,
      "Ġforce": 3824,
      "olf": 3825,
      "ĠFil": 3826,
      "ĠFather": 3827,
      "ĠDam": 3828,
      "using": 3829,
      "ĠGiants": 3830,
      "Ġchick": 3831,
      "ĠEm": 3832,
      "ĠOther": 3833,
      "ears": 3834,
      "apt": 3835,
      "ĠThanks": 3836,
      "Ġtea": 3837,
      "venue": 3838,
      "Ġspot": 3839,
      "Ġworkers": 3840,
      "Ġroll": 3841,
      "reng": 3842,
      "anced": 3843,
      "Ġfloor": 3844,
      "Ġhelping": 3845,
      "ĠAny": 3846,
      "Ġinstit": 3847,
      "example": 3848,
      "198": 3849,
      "Ġdeveloped": 3850,
      "Ġlarger": 3851,
      "Ġperformance": 3852,
      "Ġgrowing": 3853,
      "www": 3854,
      "ronic": 3855,
      "Ġcreative": 3856,
      "ĠCharl": 3857,
      "Ġclearly": 3858,
      "yright": 3859,
      "Ġabsolute": 3860,
      "ĠSarah": 3861,
      "Ġautom": 3862,
      "Ġdocument": 3863,
      "ĠRobert": 3864,
      "Ġfrequ": 3865,
      "Ġplatform": 3866,
      "Ġamazing": 3867,
      "28": 3868,
      "At": 3869,
      "From": 3870,
      "Just": 3871,
      "Not": 3872,
      "PE": 3873,
      "bing": 3874,
      "fit": 3875,
      "uate": 3876,
      "Ġ>": 3877,
      "Ġir": 3878,
      "Ġcell": 3879,
      "itals": 3880,
      "Ġbudget": 3881,
      "Ġfan": 3882,
      "Ġmer": 3883,
      "Ġdance": 3884,
      "Ġdire": 3885,
      "ston": 3886,
      "Ġeat": 3887,
      "ayl": 3888,
      "ĠCons": 3889,
      "sequ": 3890,
      "urning": 3891,
      "Ġyouth": 3892,
      "ĠMouse": 3893,
      "ĠMany": 3894,
      "Ġwhom": 3895,
      "Ġrule": 3896,
      "unities": 3897,
      "Ġvoice": 3898,
      "outs": 3899,
      "ĠEar": 3900,
      "Ġmeant": 3901,
      "Ġteaching": 3902,
      "ression": 3903,
      "Ġcoach": 3904,
      "Ġaccom": 3905,
      "Ġowner": 3906,
      "duction": 3907,
      "Ġacadem": 3908,
      "Ġfinished": 3909,
      "Ġassess": 3910,
      "Ġdifference": 3911,
      "Ġopened": 3912,
      "iamond": 3913,
      "Ġlevels": 3914,
      "Ġtemper": 3915,
      "Ġunderstanding": 3916,
      "Ġfailed": 3917,
      "ĠInternet": 3918,
      "Ġoptions": 3919,
      "urban": 3920,
      "ecutive": 3921,
      "ocolate": 3922,
      ".'": 3923,
      "Ar": 3924,
      "EM": 3925,
      "OL": 3926,
      "bed": 3927,
      "oz": 3928,
      "oons": 3929,
      "point": 3930,
      "rate": 3931,
      "vention": 3932,
      "Ġaware": 3933,
      "ona": 3934,
      "Ġsitting": 3935,
      "Ġcart": 3936,
      "Ġfish": 3937,
      "stone": 3938,
      "acters": 3939,
      "Ġstreng": 3940,
      "ĠFarm": 3941,
      "usiness": 3942,
      "ĠLet": 3943,
      "ĠLast": 3944,
      "Ġnotice": 3945,
      "ĠEast": 3946,
      "Ġadm": 3947,
      "Ġmanager": 3948,
      "ĠChina": 3949,
      "Ġagents": 3950,
      "Ġagency": 3951,
      "Ġparties": 3952,
      "olly": 3953,
      "Ġdecide": 3954,
      "Ġexpert": 3955,
      "Ġ70": 3956,
      "Ġslight": 3957,
      "Ġbiggest": 3958,
      "Ġwinning": 3959,
      "ĠLeague": 3960,
      "Ġapproach": 3961,
      "ĠPlay": 3962,
      "Ġlegisl": 3963,
      "Ġforeign": 3964,
      "fficient": 3965,
      "Ġprotection": 3966,
      "Ġconditions": 3967,
      "Ġexisting": 3968,
      "ĠGeorge": 3969,
      "ĠGeorgia": 3970,
      "Ġrequirements": 3971,
      "esterday": 3972,
      "Ġpurpose": 3973,
      "ĠAssociation": 3974,
      "Ġensure": 3975,
      "Ġmachine": 3976,
      "Ġexcellent": 3977,
      "ĠFlorida": 3978,
      "EKS": 3979,
      "New": 3980,
      "ffe": 3981,
      "iation": 3982,
      "ipe": 3983,
      "oices": 3984,
      "pre": 3985,
      "rs": 3986,
      "Ġwild": 3987,
      "itation": 3988,
      "itude": 3989,
      "Ġborn": 3990,
      "orter": 3991,
      "orry": 3992,
      "Ġfab": 3993,
      "Ġfreedom": 3994,
      "Ġpaid": 3995,
      "Ġmine": 3996,
      "Ġdream": 3997,
      "Ġthus": 3998,
      "omen": 3999,
      "Ġlength": 4000,
      "Ġbeat": 4001,
      "ĠSince": 4002,
      "ĠCru": 4003,
      "see": 4004,
      "ĠBudd": 4005,
      "ifth": 4006,
      "ĠFoot": 4007,
      "ĠRiver": 4008,
      "that": 4009,
      "Ġvir": 4010,
      "ope": 4011,
      "ĠEach": 4012,
      "Ġshop": 4013,
      "agn": 4014,
      "ously": 4015,
      "Ġarms": 4016,
      "ucks": 4017,
      "ĠIns": 4018,
      "ĠVict": 4019,
      "ervation": 4020,
      "angnam": 4021,
      "Ġ2006": 4022,
      "ĠDev": 4023,
      "ĠWhy": 4024,
      "Ġsupposed": 4025,
      "Ġshowing": 4026,
      "inese": 4027,
      "Ġdefensive": 4028,
      "Ġcharge": 4029,
      "Ġcharacters": 4030,
      "anned": 4031,
      "Ġfourth": 4032,
      "Ġfiles": 4033,
      "Ġbroad": 4034,
      "Ġmeaning": 4035,
      "ĠScott": 4036,
      "ograp": 4037,
      "Ġbasic": 4038,
      "Ġbehav": 4039,
      "Ġphysical": 4040,
      "Ġopportunities": 4041,
      "Ġpackage": 4042,
      "aska": 4043,
      "Ġefforts": 4044,
      "Ġreligious": 4045,
      "Ġdirection": 4046,
      "21": 4047,
      "53": 4048,
      "CI": 4049,
      "PA": 4050,
      "Pro": 4051,
      "pot": 4052,
      "right": 4053,
      "yard": 4054,
      "Ġver": 4055,
      "inner": 4056,
      "atically": 4057,
      "nds": 4058,
      "Ġcamera": 4059,
      "Ġpark": 4060,
      "Ġhundred": 4061,
      "asy": 4062,
      "icip": 4063,
      "Ġlic": 4064,
      "Ġreasons": 4065,
      "aches": 4066,
      "ĠAlex": 4067,
      "iled": 4068,
      "Ġstage": 4069,
      "Ġstret": 4070,
      "ĠMost": 4071,
      "ĠBre": 4072,
      "Ġwear": 4073,
      "Ġweight": 4074,
      "Ġrain": 4075,
      "ĠDist": 4076,
      "ĠRose": 4077,
      "ĠLiber": 4078,
      "Ġaltern": 4079,
      "ĠJer": 4080,
      "Ġuses": 4081,
      "ĠInstitute": 4082,
      "Ġcontain": 4083,
      "Ġgoods": 4084,
      "Ġflat": 4085,
      "Ġflow": 4086,
      "Ġdecisions": 4087,
      "Ġattract": 4088,
      "Ġopening": 4089,
      "ĠTrans": 4090,
      "Ġbrother": 4091,
      "Ġpreviously": 4092,
      "Ġoccas": 4093,
      "Ġincreasing": 4094,
      "Ġanimals": 4095,
      "force": 4096,
      "ĠBrown": 4097,
      "Ġphysic": 4098,
      "Ġraised": 4099,
      "Ġdeeply": 4100,
      "Ġsongs": 4101,
      "Ġanalysis": 4102,
      "ĠScience": 4103,
      "Ġrelationship": 4104,
      "Ġcollabor": 4105,
      "Ġordinance": 4106,
      "ĠRichard": 4107,
      "ĠWilson": 4108,
      "ĠCouncil": 4109,
      "75": 4110,
      "FA": 4111,
      "ID": 4112,
      "SE": 4113,
      "Un": 4114,
      "eed": 4115,
      "friend": 4116,
      "han": 4117,
      "mosp": 4118,
      "rast": 4119,
      "vis": 4120,
      "vant": 4121,
      "wide": 4122,
      "wich": 4123,
      "Ġtough": 4124,
      "heim": 4125,
      "iny": 4126,
      "Ġcities": 4127,
      "Ġfly": 4128,
      "Ġmaster": 4129,
      "Ġhol": 4130,
      "Ġhang": 4131,
      "Ġholes": 4132,
      "Ġnine": 4133,
      "Ġreached": 4134,
      "Ġep": 4135,
      "ĠAL": 4136,
      "ims": 4137,
      "ĠBook": 4138,
      "Ġattend": 4139,
      "ĠFrench": 4140,
      "Ġproceed": 4141,
      "ĠDave": 4142,
      "Ġcompl": 4143,
      "ĠRad": 4144,
      "usband": 4145,
      "ables": 4146,
      "aine": 4147,
      "Ġclub": 4148,
      "ĠInter": 4149,
      "ĠChinese": 4150,
      "Ġtherefore": 4151,
      "ension": 4152,
      "ordin": 4153,
      "Ġpregn": 4154,
      "comp": 4155,
      "ĠAlso": 4156,
      "atively": 4157,
      "Ġhighlight": 4158,
      "Ġreality": 4159,
      "Ġstrateg": 4160,
      "ĠBeach": 4161,
      "Ġ80": 4162,
      "Ġcomplex": 4163,
      "Ġextreme": 4164,
      "Ġdemonst": 4165,
      "iverse": 4166,
      "Ġtemporary": 4167,
      "ĠCentral": 4168,
      "Ġwaiting": 4169,
      "Ġdiscussion": 4170,
      "Ġbaseball": 4171,
      "Ġelection": 4172,
      "ĠSuper": 4173,
      "Ġteachers": 4174,
      "ĠCheck": 4175,
      "ĠErica": 4176,
      "ĠPhillip": 4177,
      "06": 4178,
      "26": 4179,
      "OO": 4180,
      "SD": 4181,
      "See": 4182,
      "Tr": 4183,
      "Will": 4184,
      "cy": 4185,
      "iant": 4186,
      "lin": 4187,
      "men": 4188,
      "mes": 4189,
      "oan": 4190,
      "pan": 4191,
      "rough": 4192,
      "uals": 4193,
      "Ġur": 4194,
      "Ġtag": 4195,
      "Ġsand": 4196,
      "itable": 4197,
      "Ġbat": 4198,
      "orable": 4199,
      "Ġfra": 4200,
      "Ġfashion": 4201,
      "ara": 4202,
      "Ġlinks": 4203,
      "ĠST": 4204,
      "Ġonto": 4205,
      "Ġforget": 4206,
      "olt": 4207,
      "oop": 4208,
      "andom": 4209,
      "ĠLoney": 4210,
      "ĠGoogle": 4211,
      "Ġshared": 4212,
      "Ġsharing": 4213,
      "raw": 4214,
      "Ġplate": 4215,
      "Ġplays": 4216,
      "ĠUp": 4217,
      "Ġadop": 4218,
      "Ġunc": 4219,
      "Ġdisapp": 4220,
      "Ġprec": 4221,
      "Ġregist": 4222,
      "Ġincred": 4223,
      "Ġminute": 4224,
      "Ġrequest": 4225,
      "Ġrequires": 4226,
      "Ġfeels": 4227,
      "Ġgenerally": 4228,
      "ĠBecause": 4229,
      "Ġlargest": 4230,
      "Ġmodel": 4231,
      "Ġpassed": 4232,
      "Ġpatient": 4233,
      "Ġcentral": 4234,
      "Ġskills": 4235,
      "Ġeffective": 4236,
      "ports": 4237,
      "Ġpowerful": 4238,
      "ĠAtlant": 4239,
      "Ġrespond": 4240,
      "ĠTechn": 4241,
      "Ġcapt": 4242,
      "Ġregulatory": 4243,
      "Ġmajority": 4244,
      "opped": 4245,
      "ĠDesign": 4246,
      "Ġdigital": 4247,
      "Ġnetwork": 4248,
      "Ġeyes": 4249,
      "ĠOffice": 4250,
      "Ġprimary": 4251,
      "Ġlabel": 4252,
      "Ġschedule": 4253,
      "ĠDemocr": 4254,
      "Ġdetermined": 4255,
      "Ġrestaurant": 4256,
      "Ġcandid": 4257,
      "ĠMartin": 4258,
      "ĠLouis": 4259,
      "\".": 4260,
      "36": 4261,
      ">>": 4262,
      "?\"": 4263,
      "Con": 4264,
      "RA": 4265,
      "ares": 4266,
      "burg": 4267,
      "hot": 4268,
      "net": 4269,
      "van": 4270,
      "Ġurban": 4271,
      "Ġsides": 4272,
      "Ġcake": 4273,
      "Ġbattle": 4274,
      "Ġfing": 4275,
      "Ġfant": 4276,
      "Ġfile": 4277,
      "Ġfisher": 4278,
      "Ġpow": 4279,
      "Ġpap": 4280,
      "edies": 4281,
      "Ġmail": 4282,
      "omin": 4283,
      "ĠSouthern": 4284,
      "ĠToday": 4285,
      "idel": 4286,
      "ĠAgins": 4287,
      "ĠCamp": 4288,
      "season": 4289,
      "adium": 4290,
      "olina": 4291,
      "Ġwholesale": 4292,
      "term": 4293,
      "ooper": 4294,
      "Ġrid": 4295,
      "ĠDVD": 4296,
      "ĠRyan": 4297,
      "una": 4298,
      "Ġvirt": 4299,
      "ĠLake": 4300,
      "Ġexerc": 4301,
      "Ġshut": 4302,
      "ocation": 4303,
      "Ġplus": 4304,
      "udy": 4305,
      "Ġbutton": 4306,
      "ĠStyle": 4307,
      "ĠChild": 4308,
      "ords": 4309,
      "Ġblock": 4310,
      "issan": 4311,
      "Ġaccur": 4312,
      "ĠRev": 4313,
      "ribution": 4314,
      "ellow": 4315,
      "cient": 4316,
      "Ġended": 4317,
      "Ġshowed": 4318,
      "Ġminor": 4319,
      "ĠProgram": 4320,
      "Ġfamous": 4321,
      "Ġsurv": 4322,
      "Ġtransfer": 4323,
      "azine": 4324,
      "Ġcris": 4325,
      "standing": 4326,
      "Ġsalt": 4327,
      "Ġsolid": 4328,
      "Ġlegal": 4329,
      "ĠMedia": 4330,
      "Ġselling": 4331,
      "Ġidentify": 4332,
      "Ġtools": 4333,
      "Ġpitch": 4334,
      "Ġtypically": 4335,
      "Ġteacher": 4336,
      "Ġestablish": 4337,
      "Ġestablished": 4338,
      "Ġvolunte": 4339,
      "Ġmanufacture": 4340,
      "Ġnormal": 4341,
      "ĠSenate": 4342,
      "Ġappropriate": 4343,
      "Ġbalance": 4344,
      "Ġorganizations": 4345,
      "38": 4346,
      "CH": 4347,
      "ND": 4348,
      "RS": 4349,
      "but": 4350,
      "box": 4351,
      "care": 4352,
      "how": 4353,
      "iers": 4354,
      "phen": 4355,
      "ued": 4356,
      "with": 4357,
      "Ġtack": 4358,
      "ino": 4359,
      "rek": 4360,
      "err": 4361,
      "Ġwood": 4362,
      "Ġwish": 4363,
      "atre": 4364,
      "Ġcold": 4365,
      "Ġcert": 4366,
      "esome": 4367,
      "Ġpsych": 4368,
      "Ġmot": 4369,
      "Ġder": 4370,
      "Ġthous": 4371,
      "Ġreve": 4372,
      "uto": 4373,
      "uty": 4374,
      "Ġyesterday": 4375,
      "sey": 4376,
      "imp": 4377,
      "Ġheat": 4378,
      "ĠMem": 4379,
      "Ġang": 4380,
      "ĠPenn": 4381,
      "Ġhaven": 4382,
      "ĠHist": 4383,
      "Ġatmosp": 4384,
      "Ġride": 4385,
      "Ġrich": 4386,
      "Ġrub": 4387,
      "ulations": 4388,
      "pping": 4389,
      "thouse": 4390,
      "Ġvs": 4391,
      "ĠNFL": 4392,
      "ĠLike": 4393,
      "Ġnoted": 4394,
      "que": 4395,
      "Ġalt": 4396,
      "Ġupgr": 4397,
      "Ġclim": 4398,
      "ipment": 4399,
      "Ġunless": 4400,
      "Ġprefer": 4401,
      "ancing": 4402,
      "endment": 4403,
      "Ġactive": 4404,
      "Ġguests": 4405,
      "ocket": 4406,
      "pective": 4407,
      "Ġbelong": 4408,
      "Ġfinding": 4409,
      "lands": 4410,
      "Ġeditor": 4411,
      "ĠAmericans": 4412,
      "Ġinsurance": 4413,
      "ĠClass": 4414,
      "annel": 4415,
      "Ġexpand": 4416,
      "Ġcorner": 4417,
      "Ġclasses": 4418,
      "Ġadvice": 4419,
      "iami": 4420,
      "Ġthoughts": 4421,
      "Ġpopulation": 4422,
      "Ġpolicies": 4423,
      "Ġoperations": 4424,
      "Ġmenu": 4425,
      "Ġbasis": 4426,
      "ĠResearch": 4427,
      "Ġcombination": 4428,
      "Ġindustrial": 4429,
      "fortun": 4430,
      "ĠiPod": 4431,
      "ĠMichigan": 4432,
      "Ġdegus": 4433,
      "Ġconcerned": 4434,
      "Ġrestrictions": 4435,
      "Ġculture": 4436,
      "Ġradio": 4437,
      "Ġspiritual": 4438,
      "ĠMexico": 4439,
      "Ġinmates": 4440,
      "ĠDirector": 4441,
      "31": 4442,
      "46": 4443,
      "PS": 4444,
      "part": 4445,
      "ÃŃ": 4446,
      "Ġsounds": 4447,
      "Ġcovered": 4448,
      "Ġbread": 4449,
      "Ġmill": 4450,
      "Ġmission": 4451,
      "Ġmicro": 4452,
      "Ġmental": 4453,
      "Ġdial": 4454,
      "ica": 4455,
      "âĢĺ": 4456,
      "ĠTex": 4457,
      "ĠAri": 4458,
      "ĠCr": 4459,
      "igr": 4460,
      "ĠMiami": 4461,
      "ĠWall": 4462,
      "ĠHen": 4463,
      "ĠHome": 4464,
      "ĠHave": 4465,
      "Ġran": 4466,
      "Ġrare": 4467,
      "Ġrough": 4468,
      "Ġrank": 4469,
      "estival": 4470,
      "ushed": 4471,
      "ĠLear": 4472,
      "Ġshown": 4473,
      "alled": 4474,
      "Ġworry": 4475,
      "Ġtrain": 4476,
      "ube": 4477,
      "Ġagreed": 4478,
      "Ġspons": 4479,
      "Ġspread": 4480,
      "ressive": 4481,
      "Ġadding": 4482,
      "Ġuseful": 4483,
      "Ġinval": 4484,
      "Ġremains": 4485,
      "Ġarticles": 4486,
      "Ġsigned": 4487,
      "anny": 4488,
      "Ġmoving": 4489,
      "flict": 4490,
      "Ġsmaller": 4491,
      "ĠMedic": 4492,
      "ĠBrother": 4493,
      "ĠWithout": 4494,
      "Ġwatching": 4495,
      "ING": 4496,
      "Ġenvironmental": 4497,
      "Ġscientific": 4498,
      "Ġcaused": 4499,
      "Ġanaly": 4500,
      "Ġapplication": 4501,
      "ĠAcadem": 4502,
      "482": 4503,
      "ĠKorean": 4504,
      "Ġdoubt": 4505,
      "ĠSupreme": 4506,
      "Ġdrug": 4507,
      "Ġshopping": 4508,
      "ĠCongress": 4509,
      "Ġneighborhood": 4510,
      "ĠVirginia": 4511,
      "29": 4512,
      "500": 4513,
      "App": 4514,
      "den": 4515,
      "hold": 4516,
      "iest": 4517,
      "mark": 4518,
      "pret": 4519,
      "ront": 4520,
      "hest": 4521,
      "rey": 4522,
      "Ġsacr": 4523,
      "Ġcrow": 4524,
      "Ġcash": 4525,
      "Ġcateg": 4526,
      "ishes": 4527,
      "Ġbone": 4528,
      "Ġbrief": 4529,
      "orage": 4530,
      "estern": 4531,
      "Ġfol": 4532,
      "Ġpair": 4533,
      "Ġtowards": 4534,
      "Ġmur": 4535,
      "Ġmort": 4536,
      "Ġmale": 4537,
      "Ġmax": 4538,
      "Ġdang": 4539,
      "oma": 4540,
      "state": 4541,
      "Ġnor": 4542,
      "oting": 4543,
      "ĠTor": 4544,
      "ĠTra": 4545,
      "iling": 4546,
      "olars": 4547,
      "Ġstream": 4548,
      "ĠMass": 4549,
      "ĠBi": 4550,
      "ĠBer": 4551,
      "ĠPre": 4552,
      "Ġaspect": 4553,
      "ifer": 4554,
      "ĠWin": 4555,
      "ĠHum": 4556,
      "Ġconclus": 4557,
      "rian": 4558,
      "ewel": 4559,
      "ĠLu": 4560,
      "Ġchocolate": 4561,
      "ĠEss": 4562,
      "Ġwilling": 4563,
      "Ġtraining": 4564,
      "aren": 4565,
      "Ġarm": 4566,
      "Ġappoint": 4567,
      "Ġscen": 4568,
      "issipp": 4569,
      "Ġknows": 4570,
      "Ġseeing": 4571,
      "Ġmostly": 4572,
      "Ġowned": 4573,
      "Ġconsult": 4574,
      "ups": 4575,
      "Ġgreater": 4576,
      "encies": 4577,
      "Ġacres": 4578,
      "Ġartist": 4579,
      "nergy": 4580,
      "Ġsetting": 4581,
      "velopment": 4582,
      "While": 4583,
      "Ġtransl": 4584,
      "Ġolder": 4585,
      "Ġclassic": 4586,
      "Ġturns": 4587,
      "ĠColor": 4588,
      "ĠCommunity": 4589,
      "ĠCommission": 4590,
      "Ġvideos": 4591,
      "ĠChristmas": 4592,
      "Ġvariety": 4593,
      "Ġplanning": 4594,
      "Ġ304": 4595,
      "Ġpurchased": 4596,
      "going": 4597,
      "Ġsteps": 4598,
      "mbol": 4599,
      "Ġexcited": 4600,
      "ĠPeople": 4601,
      "Ġfootball": 4602,
      "ĠGovern": 4603,
      "Ġdrinking": 4604,
      "Ġfemale": 4605,
      "Ġoffered": 4606,
      "Ġcorporate": 4607,
      "issippi": 4608,
      "90": 4609,
      "According": 4610,
      "Round": 4611,
      "gment": 4612,
      "hand": 4613,
      "iat": 4614,
      "ni": 4615,
      "tle": 4616,
      "onald": 4617,
      "Ġcou": 4618,
      "Ġcro": 4619,
      "ening": 4620,
      "Ġfill": 4621,
      "Ġhusband": 4622,
      "Ġdress": 4623,
      "ican": 4624,
      "lets": 4625,
      "Ġliber": 4626,
      "Ġlibrary": 4627,
      "Ġreact": 4628,
      "Ġreform": 4629,
      "Ġreject": 4630,
      "ĠID": 4631,
      "ĠAward": 4632,
      "ĠCubs": 4633,
      "iler": 4634,
      "Ġstructure": 4635,
      "Ġstyles": 4636,
      "ĠMel": 4637,
      "ĠMicro": 4638,
      "ĠBet": 4639,
      "ĠBob": 4640,
      "ĠFam": 4641,
      "ĠFood": 4642,
      "Ġrac": 4643,
      "Ġproduced": 4644,
      "ulated": 4645,
      "ĠGangnam": 4646,
      "ĠJournal": 4647,
      "ĠElect": 4648,
      "Ġworse": 4649,
      "ooking": 4650,
      "ĠThank": 4651,
      "Ġadjust": 4652,
      "ĠChris": 4653,
      "Ġuns": 4654,
      "Ġresolution": 4655,
      "Ġ31": 4656,
      "Ġpartner": 4657,
      "Ġscale": 4658,
      "ĠView": 4659,
      "Ġ49": 4660,
      "ĠDef": 4661,
      "Ġreaders": 4662,
      "Ġpresence": 4663,
      "ribute": 4664,
      "ellant": 4665,
      "ossible": 4666,
      "ĠAlt": 4667,
      "Ġcourts": 4668,
      "ĠClub": 4669,
      "Ġbusinesses": 4670,
      "Ġlisted": 4671,
      "Ġproduce": 4672,
      "Ġexpensive": 4673,
      "Ġhealthy": 4674,
      "Ġbuildings": 4675,
      "arently": 4676,
      "ĠCarolina": 4677,
      "Ġpotato": 4678,
      "Ġvoters": 4679,
      "Ġgirls": 4680,
      "Ġclaims": 4681,
      "Ġretailers": 4682,
      "Ġcritical": 4683,
      "Ġmeasure": 4684,
      "Ġeye": 4685,
      "Ġloved": 4686,
      "Ġdescribed": 4687,
      "Ġseparate": 4688,
      "Ġcounter": 4689,
      "Ġconsumers": 4690,
      "Ġbecomes": 4691,
      "Ġtaste": 4692,
      "Ġcredit": 4693,
      "Ġachieve": 4694,
      "Ġtomorrow": 4695,
      "Ġsenior": 4696,
      "Ġadvantage": 4697,
      "Ġchicken": 4698,
      "ĠVictor": 4699,
      "Ġbehavior": 4700,
      "04": 4701,
      ":||": 4702,
      "BC": 4703,
      "Com": 4704,
      "De": 4705,
      "IL": 4706,
      "Ke": 4707,
      "Love": 4708,
      "NE": 4709,
      "OS": 4710,
      "born": 4711,
      "foot": 4712,
      "ios": 4713,
      "kn": 4714,
      "note": 4715,
      "spe": 4716,
      "Ġ*": 4717,
      "iner": 4718,
      "inct": 4719,
      "Ġsch": 4720,
      "Ġcast": 4721,
      "orial": 4722,
      "Ġfle": 4723,
      "Ġdie": 4724,
      "asp": 4725,
      "ĠSl": 4726,
      "ĠSur": 4727,
      "ĠSun": 4728,
      "ĠCro": 4729,
      "Ġstorage": 4730,
      "ĠMatt": 4731,
      "ĠMuseum": 4732,
      "chan": 4733,
      "ĠBen": 4734,
      "Ġweap": 4735,
      "Ġweather": 4736,
      "Ġwearing": 4737,
      "ĠPac": 4738,
      "ĠPop": 4739,
      "ĠWood": 4740,
      "ĠWalk": 4741,
      "ĠWhere": 4742,
      "ĠHall": 4743,
      "ĠFound": 4744,
      "Ġpros": 4745,
      "ĠDie": 4746,
      "ĠLaw": 4747,
      "Ġnotes": 4748,
      "Ġexclus": 4749,
      "ĠJob": 4750,
      "ĠJones": 4751,
      "ĠEv": 4752,
      "Ġshoot": 4753,
      "ĠOver": 4754,
      "akers": 4755,
      "text": 4756,
      "Ġtrou": 4757,
      "ĠUt": 4758,
      "Ġusual": 4759,
      "Ġteach": 4760,
      "Ġclin": 4761,
      "Ġperman": 4762,
      "Ġdisp": 4763,
      "Ġthank": 4764,
      "order": 4765,
      "ruit": 4766,
      "Ġbrain": 4767,
      "Ġcommand": 4768,
      "Ġ2003": 4769,
      "Ġhelpful": 4770,
      "Ġregion": 4771,
      "Ġdesire": 4772,
      "Ġactual": 4773,
      "Ġentertain": 4774,
      "Ġrelief": 4775,
      "ocked": 4776,
      "Ġdecor": 4777,
      "Ġremind": 4778,
      "Ġprescription": 4779,
      "ologies": 4780,
      "ĠAlaska": 4781,
      "Ġcalls": 4782,
      "Ġexpressed": 4783,
      "Ġglass": 4784,
      "ĠBrand": 4785,
      "Ġdriving": 4786,
      "Ġdraft": 4787,
      "Ġlaws": 4788,
      "Ġanimation": 4789,
      "while": 4790,
      "Ġveh": 4791,
      "Ġvend": 4792,
      "Ġlaunch": 4793,
      "Ġinternet": 4794,
      "Ġhotel": 4795,
      "Ġannounce": 4796,
      "Ġdiagn": 4797,
      "Ġfamiliar": 4798,
      "Ġcomfortable": 4799,
      "Ġarrived": 4800,
      "Ġwhiskey": 4801,
      "Ġappreciate": 4802,
      "Ġacademic": 4803,
      "Ġstretch": 4804,
      "Ġcrowd": 4805,
      "45": 4806,
      "BA": 4807,
      "CM": 4808,
      "MS": 4809,
      "More": 4810,
      "Where": 4811,
      "chen": 4812,
      "iot": 4813,
      "ivery": 4814,
      "ka": 4815,
      "night": 4816,
      "yd": 4817,
      "Ġcute": 4818,
      "Ġban": 4819,
      "aled": 4820,
      "Ġinform": 4821,
      "Ġhits": 4822,
      "Ġthick": 4823,
      "Ġrevenue": 4824,
      "ĠTop": 4825,
      "ĠAP": 4826,
      "ĠBel": 4827,
      "cean": 4828,
      "ĠPress": 4829,
      "Ġsector": 4830,
      "Ġselection": 4831,
      "Ġrandom": 4832,
      "Ġproced": 4833,
      "ĠDis": 4834,
      "ĠDet": 4835,
      "ĠRh": 4836,
      "ulous": 4837,
      "ĠGood": 4838,
      "ĠGerman": 4839,
      "employ": 4840,
      "Ġchair": 4841,
      "ĠJesus": 4842,
      "ĠOk": 4843,
      "âĢĿ,": 4844,
      "Ġclot": 4845,
      "Ġclient": 4846,
      "bert": 4847,
      "ĠChamp": 4848,
      "Ġ35": 4849,
      "Ġtwe": 4850,
      "Ġspeaking": 4851,
      "weet": 4852,
      "oved": 4853,
      "Ġbrand": 4854,
      "iano": 4855,
      "Ġcommission": 4856,
      "Ġbuying": 4857,
      "ĠSeattle": 4858,
      "elling": 4859,
      "Ġeval": 4860,
      "Ġsets": 4861,
      "ĠFrance": 4862,
      "Ġinstruct": 4863,
      "Ġfunny": 4864,
      "Ġdiscovered": 4865,
      "Ġsurround": 4866,
      "Ġfilms": 4867,
      "Ġstanding": 4868,
      "Ġ03": 4869,
      "Ġmaintain": 4870,
      "Ġdriver": 4871,
      "Ġdealers": 4872,
      "Ġcampus": 4873,
      "Ġviews": 4874,
      "Ġtells": 4875,
      "Ġmarketing": 4876,
      "ĠAmendment": 4877,
      "Ġoccup": 4878,
      "Ġeducational": 4879,
      "Ġdeliver": 4880,
      "ĠStephen": 4881,
      "Ġveter": 4882,
      "ĠIndia": 4883,
      "Ġeventually": 4884,
      "Ġpicked": 4885,
      "Ġreturned": 4886,
      "ĠQuark": 4887,
      "Ġraise": 4888,
      "Ġstores": 4889,
      "Ġdrawing": 4890,
      "Ġconcerns": 4891,
      "ĠMississippi": 4892,
      "ĠReds": 4893,
      "Ġhomes": 4894,
      "Ġreplace": 4895,
      "Ġcircum": 4896,
      "ĠMuslim": 4897,
      "Ġencourage": 4898,
      "Ġfamilies": 4899,
      "Ġindependent": 4900,
      "Ġlanguage": 4901,
      "Ġchampions": 4902,
      "Ġcitizens": 4903,
      "Ġbrowser": 4904,
      "ollywood": 4905,
      "ĠInsurance": 4906,
      "ĠDistrict": 4907,
      "ĠTexas": 4908,
      "Ġinvalid": 4909,
      "32": 4910,
      "AP": 4911,
      "By": 4912,
      "Last": 4913,
      "May": 4914,
      "awn": 4915,
      "date": 4916,
      "from": 4917,
      "ma": 4918,
      "mp": 4919,
      "rd": 4920,
      "rated": 4921,
      "win": 4922,
      "Ġ]": 4923,
      "Ġign": 4924,
      "Ġtheory": 4925,
      "Ġcy": 4926,
      "itors": 4927,
      "itchen": 4928,
      "Ġbreat": 4929,
      "Ġbaking": 4930,
      "Ġbatter": 4931,
      "Ġfuel": 4932,
      "arant": 4933,
      "arrow": 4934,
      "Ġdaughter": 4935,
      "vey": 4936,
      "stant": 4937,
      "ĠIN": 4938,
      "ĠTom": 4939,
      "ĠTime": 4940,
      "ĠTimes": 4941,
      "ette": 4942,
      "Ġforced": 4943,
      "ĠCur": 4944,
      "ĠCode": 4945,
      "ima": 4946,
      "Ġhearing": 4947,
      "Ġstorm": 4948,
      "ĠMont": 4949,
      "ĠWal": 4950,
      "ĠHot": 4951,
      "Ġseat": 4952,
      "ĠFA": 4953,
      "ĠFree": 4954,
      "ĠRuss": 4955,
      "ores": 4956,
      "ĠNov": 4957,
      "ĠEnergy": 4958,
      "alls": 4959,
      "Ġupcoming": 4960,
      "Ġmere": 4961,
      "Ġmechan": 4962,
      "Ġneg": 4963,
      "ogs": 4964,
      "ogue": 4965,
      "Ġadvert": 4966,
      "Ġclosed": 4967,
      "Ġoffense": 4968,
      "Ġmanaged": 4969,
      "Ġanywhere": 4970,
      "Ġunit": 4971,
      "Ġthanks": 4972,
      "Ġpoll": 4973,
      "Ġhelps": 4974,
      "Ġevening": 4975,
      "Ġintend": 4976,
      "Ġcheese": 4977,
      "Ġmining": 4978,
      "Ġmedium": 4979,
      "Ġ90": 4980,
      "Ġdetail": 4981,
      "Ġkeeping": 4982,
      "ĠQue": 4983,
      "Ġconstruction": 4984,
      "Ġresear": 4985,
      "Ġincreased": 4986,
      "ĠIndian": 4987,
      "Ġcreating": 4988,
      "Ġholding": 4989,
      "Ġmissing": 4990,
      "Ġelectric": 4991,
      "Ġkeyboard": 4992,
      "Ġdebate": 4993,
      "Ġcritic": 4994,
      "Ġtypes": 4995,
      "Ġupdate": 4996,
      "ĠJapanese": 4997,
      "ascene": 4998,
      "Ġindeed": 4999,
      "Ġtouchdown": 5000,
      "Ġleadership": 5001,
      "Ġiniti": 5002,
      "Ġinitial": 5003,
      "ĠEuropean": 5004,
      "Ġbecoming": 5005,
      "Ġprepared": 5006,
      "Ġvictory": 5007,
      "Ġtonight": 5008,
      "ĠAngeles": 5009,
      "ĠSociety": 5010,
      "ĠDamascene": 5011,
      ",'": 5012,
      "220": 5013,
      "Ab": 5014,
      "Do": 5015,
      "ED": 5016,
      "IA": 5017,
      "IG": 5018,
      "JW": 5019,
      "bo": 5020,
      "cing": 5021,
      "eared": 5022,
      "miss": 5023,
      "pay": 5024,
      "hem": 5025,
      "Ġsick": 5026,
      "iser": 5027,
      "Ġbre": 5028,
      "Ġbra": 5029,
      "Ġbacter": 5030,
      "Ġfilled": 5031,
      "Ġhur": 5032,
      "asure": 5033,
      "Ġnone": 5034,
      "Ġec": 5035,
      "Ġeth": 5036,
      "oted": 5037,
      "ĠSk": 5038,
      "ĠSale": 5039,
      "ĠTake": 5040,
      "sex": 5041,
      "olo": 5042,
      "ĠMet": 5043,
      "ĠMad": 5044,
      "âĢĻâĢĻ": 5045,
      "Ġwealth": 5046,
      "ĠPub": 5047,
      "ĠWhe": 5048,
      "ĠWork": 5049,
      "ĠHT": 5050,
      "Ġwaste": 5051,
      "Ġconcept": 5052,
      "Ġconference": 5053,
      "ĠRay": 5054,
      "Ġdelic": 5055,
      "ĠTheir": 5056,
      "unched": 5057,
      "Ġvill": 5058,
      "Ġsugar": 5059,
      "ĠGar": 5060,
      "ĠGet": 5061,
      "Ġextended": 5062,
      "elcome": 5063,
      "ĠJoe": 5064,
      "Ġshipping": 5065,
      "ĠOld": 5066,
      "Ġjack": 5067,
      "These": 5068,
      "ferences": 5069,
      "ĠStadium": 5070,
      "Ġcontains": 5071,
      "reek": 5072,
      "Ġknee": 5073,
      "Ġresol": 5074,
      "Ġ373": 5075,
      "ĠIts": 5076,
      "Ġproud": 5077,
      "Ġfees": 5078,
      "ervative": 5079,
      "Ġ2004": 5080,
      "ĠYoung": 5081,
      "Ġsecure": 5082,
      "Ġsymbol": 5083,
      "ciples": 5084,
      "Ġends": 5085,
      "Ġinterpret": 5086,
      "Ġleads": 5087,
      "Ġmemory": 5088,
      "ĠClick": 5089,
      "retty": 5090,
      "Ġasking": 5091,
      "Ġconstantly": 5092,
      "ĠGrand": 5093,
      "Ġmarried": 5094,
      "Ġpaying": 5095,
      "Ġsolutions": 5096,
      "Ġequipment": 5097,
      "ĠMedical": 5098,
      "Ġcombined": 5099,
      "Ġrelevant": 5100,
      "Ġtakings": 5101,
      "regon": 5102,
      "rolled": 5103,
      "Ġfairly": 5104,
      "Ġdeterm": 5105,
      "Ġcrazy": 5106,
      "ĠServices": 5107,
      "Ġregarding": 5108,
      "ĠSecond": 5109,
      "ĠWilliams": 5110,
      "Ġaudio": 5111,
      "Ġfixed": 5112,
      "Ġinnov": 5113,
      "ĠAvailable": 5114,
      "Ġsustainable": 5115,
      "Ġoccurred": 5116,
      "Ġemergency": 5117,
      "ĠRepublican": 5118,
      "Ġsomewhere": 5119,
      "Ġdedicated": 5120,
      "Ġatmosphere": 5121,
      "41": 5122,
      "70": 5123,
      "AY": 5124,
      "Cont": 5125,
      "Des": 5126,
      "FC": 5127,
      "Kevin": 5128,
      "Me": 5129,
      "Over": 5130,
      "Today": 5131,
      "``": 5132,
      "bury": 5133,
      "coh": 5134,
      "kes": 5135,
      "no": 5136,
      "uations": 5137,
      "za": 5138,
      "zil": 5139,
      "Ġ+": 5140,
      "hered": 5141,
      "onents": 5142,
      "Ġtherap": 5143,
      "Ġok": 5144,
      "itz": 5145,
      "Ġble": 5146,
      "orpor": 5147,
      "Ġpill": 5148,
      "anke": 5149,
      "Ġment": 5150,
      "arks": 5151,
      "Ġdiamond": 5152,
      "lete": 5153,
      "Ġlies": 5154,
      "Ġnut": 5155,
      "entially": 5156,
      "uther": 5157,
      "ĠSal": 5158,
      "ĠSomet": 5159,
      "ĠCD": 5160,
      "ĠCre": 5161,
      "ĠCup": 5162,
      "sec": 5163,
      "ading": 5164,
      "ctions": 5165,
      "ĠMur": 5166,
      "ĠBest": 5167,
      "ĠBoard": 5168,
      "ĠBusiness": 5169,
      "ĠPlease": 5170,
      "ĠWord": 5171,
      "Ġsequ": 5172,
      "Ġsevere": 5173,
      "ĠFed": 5174,
      "ĠDiv": 5175,
      "ĠRom": 5176,
      "ĠRem": 5177,
      "ĠRoad": 5178,
      "rip": 5179,
      "rive": 5180,
      "ulate": 5181,
      "ĠLO": 5182,
      "ĠLos": 5183,
      "ĠGen": 5184,
      "Ġexhib": 5185,
      "ĠJoh": 5186,
      "Ġkick": 5187,
      "ĠThose": 5188,
      "Ġtelev": 5189,
      "ĠStiles": 5190,
      "ĠYes": 5191,
      "Ġresidents": 5192,
      "obe": 5193,
      "Ġpeace": 5194,
      "rument": 5195,
      "ĠWeek": 5196,
      "ancer": 5197,
      "Ġcommit": 5198,
      "Ġcolumn": 5199,
      "Ġ2000": 5200,
      "Ġ2005": 5201,
      "phas": 5202,
      "Ġentit": 5203,
      "Ġsmart": 5204,
      "ĠAlthouse": 5205,
      "Ġserving": 5206,
      "Ġdiscover": 5207,
      "Ġbelief": 5208,
      "Ġtopic": 5209,
      "Ġtraffic": 5210,
      "Ġfully": 5211,
      "ĠMaybe": 5212,
      "Ġtelling": 5213,
      "Ġperformed": 5214,
      "Ġregulations": 5215,
      "Ġfeatured": 5216,
      "Ġidentity": 5217,
      "stitution": 5218,
      "heads": 5219,
      "Ġcloser": 5220,
      "Ġwalked": 5221,
      "Ġspending": 5222,
      "Ġafford": 5223,
      "Ġmeasures": 5224,
      "orgeous": 5225,
      "Ġconstitutional": 5226,
      "Ġstatus": 5227,
      "Ġapart": 5228,
      "ĠAgain": 5229,
      "ĠNetwork": 5230,
      "Ġalleged": 5231,
      "Ġinjury": 5232,
      "Ġmatters": 5233,
      "Ġcontributions": 5234,
      "Ġinfluence": 5235,
      "Ġhospitals": 5236,
      "ĠProfess": 5237,
      "ĠFrancisco": 5238,
      "ĠWindows": 5239,
      "Ġwelcome": 5240,
      "Ġabsolutely": 5241,
      "Ġautomatically": 5242,
      "Ġaccompl": 5243,
      "Ġstrength": 5244,
      "ĠCruz": 5245,
      "fortunately": 5246,
      "ĠAriz": 5247,
      "ewelry": 5248,
      "ĠRhode": 5249,
      "Ġcircumst": 5250,
      "!)": 5251,
      "100": 5252,
      "44": 5253,
      "47": 5254,
      "ION": 5255,
      "LB": 5256,
      "Mar": 5257,
      "Pr": 5258,
      "fol": 5259,
      "na": 5260,
      "noon": 5261,
      "oa": 5262,
      "pm": 5263,
      "rain": 5264,
      "yp": 5265,
      "inh": 5266,
      "inem": 5267,
      "Ġsources": 5268,
      "ati": 5269,
      "Ġcore": 5270,
      "Ġbowl": 5271,
      "Ġfav": 5272,
      "ingly": 5273,
      "Ġpounds": 5274,
      "Ġtow": 5275,
      "arge": 5276,
      "aling": 5277,
      "Ġhar": 5278,
      "Ġdiverse": 5279,
      "Ġthinks": 5280,
      "ici": 5281,
      "Ġlaugh": 5282,
      "Ġlosing": 5283,
      "Ġnove": 5284,
      "Ġreduced": 5285,
      "acon": 5286,
      "amic": 5287,
      "Ġstars": 5288,
      "irty": 5289,
      "ĠBo": 5290,
      "ĠBaby": 5291,
      "Ġweak": 5292,
      "ifts": 5293,
      "ifying": 5294,
      "ĠHel": 5295,
      "Ġseasons": 5296,
      "ĠFind": 5297,
      "andy": 5298,
      "ĠLabor": 5299,
      "emporary": 5300,
      "ume": 5301,
      "ĠJul": 5302,
      "ĠJose": 5303,
      "osite": 5304,
      "ĠOregon": 5305,
      "Ġleague": 5306,
      "Ġleaves": 5307,
      "Ġkill": 5308,
      "Ġtruck": 5309,
      "ĠUnder": 5310,
      "ĠStand": 5311,
      "Ġarg": 5312,
      "Ġcompar": 5313,
      "soft": 5314,
      "ibilities": 5315,
      "Ġdiss": 5316,
      "Ġdiscl": 5317,
      "Ġprin": 5318,
      "Ġprinc": 5319,
      "Ġsports": 5320,
      "Ġimpressive": 5321,
      "Ġimpossible": 5322,
      "Ġgrab": 5323,
      "Ġgranted": 5324,
      "gricult": 5325,
      "Ġunderst": 5326,
      "Ġ2001": 5327,
      "Ġdespite": 5328,
      "Ġguide": 5329,
      "ĠDevelopment": 5330,
      "ĠAlthough": 5331,
      "Ġnumerous": 5332,
      "Ġhandle": 5333,
      "Ġlocation": 5334,
      "atta": 5335,
      "Ġavoid": 5336,
      "Ġwinner": 5337,
      "Ġheading": 5338,
      "Ġpassing": 5339,
      "iki": 5340,
      "Ġextensive": 5341,
      "Ġdistrict": 5342,
      "Ġvalues": 5343,
      "Ġletters": 5344,
      "Ġcontinues": 5345,
      "Ġvarve": 5346,
      "Ġbroken": 5347,
      "ĠBrad": 5348,
      "Ġsolution": 5349,
      "Another": 5350,
      "Ġfacilities": 5351,
      "Ġparish": 5352,
      "Ġsuggests": 5353,
      "ĠHarbor": 5354,
      "Ġupdates": 5355,
      "Ġimmune": 5356,
      "Ġopinions": 5357,
      "ĠAfrica": 5358,
      "Ġdenied": 5359,
      "ĠTurkey": 5360,
      "Ġsatis": 5361,
      "Ġassociated": 5362,
      "Ġawesome": 5363,
      "Ġexperienced": 5364,
      "ĠBritish": 5365,
      "Ġtemperature": 5366,
      "Ġslightly": 5367,
      "ĠLiberty": 5368,
      "Ġexercise": 5369,
      "ĠHenry": 5370,
      "ĠAcademy": 5371,
      "Ġcouples": 5372,
      "56": 5373,
      "57": 5374,
      "58": 5375,
      "65": 5376,
      "AM": 5377,
      "UT": 5378,
      "greg": 5379,
      "rum": 5380,
      "test": 5381,
      "ux": 5382,
      "uild": 5383,
      "yo": 5384,
      "zen": 5385,
      "inch": 5386,
      "nding": 5387,
      "Ġbound": 5388,
      "Ġbike": 5389,
      "Ġpen": 5390,
      "Ġpet": 5391,
      "Ġmotion": 5392,
      "Ġhurt": 5393,
      "Ġdrop": 5394,
      "Ġnames": 5395,
      "Ġnarrow": 5396,
      "Ġrepe": 5397,
      "Ġge": 5398,
      "Ġgain": 5399,
      "ros": 5400,
      "ĠSir": 5401,
      "ĠSov": 5402,
      "eting": 5403,
      "ĠCle": 5404,
      "semb": 5405,
      "adian": 5406,
      "verty": 5407,
      "ĠMill": 5408,
      "ĠMother": 5409,
      "ĠPage": 5410,
      "ĠPony": 5411,
      "ifice": 5412,
      "ĠHig": 5413,
      "ĠHaw": 5414,
      "ĠFin": 5415,
      "Ġrum": 5416,
      "Ġconclud": 5417,
      "Ġconflict": 5418,
      "ĠRudy": 5419,
      "uled": 5420,
      "unes": 5421,
      "Ġven": 5422,
      "ĠLat": 5423,
      "Ġsuc": 5424,
      "Ġsup": 5425,
      "Ġexchange": 5426,
      "Ġchoices": 5427,
      "Ġalcoh": 5428,
      "ĠEll": 5429,
      "osh": 5430,
      "Ġdoctor": 5431,
      "Ġkilled": 5432,
      "ĠYanke": 5433,
      "Ġotherwise": 5434,
      "Ġunf": 5435,
      "Ġresist": 5436,
      "Ġappellant": 5437,
      "enses": 5438,
      "Ġspect": 5439,
      "oys": 5440,
      "Ġpoverty": 5441,
      "Ġbrings": 5442,
      "Ġcoal": 5443,
      "Ġ500": 5444,
      "endar": 5445,
      "ĠReal": 5446,
      "ĠDerek": 5447,
      "Ġdecades": 5448,
      "Ġremaining": 5449,
      "Ġremedies": 5450,
      "pected": 5451,
      "Ġcheap": 5452,
      "Ġexperiment": 5453,
      "Ġspecies": 5454,
      "Ġinteract": 5455,
      "Ġbigger": 5456,
      "Ġinterests": 5457,
      "Ġcreation": 5458,
      "ĠShare": 5459,
      "ducation": 5460,
      "Ġletter": 5461,
      "ĠOnline": 5462,
      "Ġrefer": 5463,
      "Ġpresentation": 5464,
      "Ġswitch": 5465,
      "Ġoperation": 5466,
      "Ġmovement": 5467,
      "Ġrooms": 5468,
      "Ġdelivery": 5469,
      "ĠExper": 5470,
      "Ġwriter": 5471,
      "Ġchallenging": 5472,
      "Ġchallenges": 5473,
      "Ġvoter": 5474,
      "Ġcustomer": 5475,
      "Ġdebt": 5476,
      "Ġcooking": 5477,
      "Ġfigures": 5478,
      "Ġtotally": 5479,
      "Ġdegree": 5480,
      "Ġdegrees": 5481,
      "Also": 5482,
      "ĠEliz": 5483,
      "ĠParty": 5484,
      "Ġadministr": 5485,
      "ĠTurk": 5486,
      "ĠJeff": 5487,
      "ĠSpecial": 5488,
      "Ġlikes": 5489,
      "Ġhouses": 5490,
      "Ġdropped": 5491,
      "ĠAustralian": 5492,
      "Ġconversation": 5493,
      "Ġalternative": 5494,
      "Ġextremely": 5495,
      "ĠDiego": 5496,
      "!\"": 5497,
      "\",": 5498,
      "37": 5499,
      "77": 5500,
      "IP": 5501,
      "Read": 5502,
      "SU": 5503,
      "Some": 5504,
      "US": 5505,
      "bro": 5506,
      "gal": 5507,
      "hart": 5508,
      "ien": 5509,
      "ias": 5510,
      "last": 5511,
      "life": 5512,
      "lines": 5513,
      "oir": 5514,
      "ram": 5515,
      "then": 5516,
      "wor": 5517,
      "yer": 5518,
      "you": 5519,
      "Ġ=": 5520,
      "Ġiron": 5521,
      "Ġtips": 5522,
      "Ġahead": 5523,
      "Ġcod": 5524,
      "Ġcry": 5525,
      "Ġbom": 5526,
      "Ġboo": 5527,
      "Ġbank": 5528,
      "Ġfifth": 5529,
      "Ġpal": 5530,
      "Ġpun": 5531,
      "Ġpurs": 5532,
      "eds": 5533,
      "Ġharm": 5534,
      "Ġdinner": 5535,
      "icide": 5536,
      "llig": 5537,
      "Ġlived": 5538,
      "Ġlabor": 5539,
      "Ġreception": 5540,
      "Ġgold": 5541,
      "ĠSil": 5542,
      "ĠSix": 5543,
      "ĠTown": 5544,
      "ĠAC": 5545,
      "ĠAld": 5546,
      "ĠAgricult": 5547,
      "ĠCM": 5548,
      "adatta": 5549,
      "amm": 5550,
      "imed": 5551,
      "Ġstone": 5552,
      "Ġstress": 5553,
      "iration": 5554,
      "ĠMot": 5555,
      "ĠMiller": 5556,
      "ĠBas": 5557,
      "ĠBull": 5558,
      "ĠBoth": 5559,
      "ĠBof": 5560,
      "Ġwithd": 5561,
      "cel": 5562,
      "ĠPretty": 5563,
      "ĠFred": 5564,
      "ĠFair": 5565,
      "ĠFederal": 5566,
      "Ġring": 5567,
      "Ġprove": 5568,
      "ĠDel": 5569,
      "ĠDod": 5570,
      "Ġcontext": 5571,
      "ĠRight": 5572,
      "this": 5573,
      "abies": 5574,
      "ĠGreg": 5575,
      "resp": 5576,
      "emn": 5577,
      "ĠEmer": 5578,
      "Ġjun": 5579,
      "ideo": 5580,
      "ĠKevin": 5581,
      "Ġherself": 5582,
      "Ġunivers": 5583,
      "Ġ39": 5584,
      "Ġapps": 5585,
      "Ġtwice": 5586,
      "Ġ48": 5587,
      "Ġseeking": 5588,
      "Ġ55": 5589,
      "Ġconsid": 5590,
      "Ġafternoon": 5591,
      "Ġguarant": 5592,
      "ĠDec": 5593,
      "ĠAndrew": 5594,
      "Ġstarts": 5595,
      "Ġsupply": 5596,
      "Ġpublish": 5597,
      "ĠFrank": 5598,
      "Ġfactors": 5599,
      "Ġputting": 5600,
      "azz": 5601,
      "2012": 5602,
      "Ġsupported": 5603,
      "ducing": 5604,
      "Ġseemed": 5605,
      "Ġallowing": 5606,
      "ĠOnce": 5607,
      "ĠPhot": 5608,
      "Ġinvestig": 5609,
      "Any": 5610,
      "Ġfields": 5611,
      "ĠTwo": 5612,
      "cribe": 5613,
      "Ġrecords": 5614,
      "ĠMrs": 5615,
      "Ġportion": 5616,
      "Ġmulti": 5617,
      "Ġfocused": 5618,
      "Ġfunding": 5619,
      "ributed": 5620,
      "Ġoptim": 5621,
      "Ġspecifically": 5622,
      "Ġ:)": 5623,
      "ĠEnvironment": 5624,
      "ĠValley": 5625,
      "Ġinnings": 5626,
      "Ġdivision": 5627,
      "Ġarchitecture": 5628,
      "ĠSystem": 5629,
      "Ġbirds": 5630,
      "Ġobvious": 5631,
      "ĠSpring": 5632,
      "ĠFootnote": 5633,
      "Ġfraud": 5634,
      "Ġincredible": 5635,
      "idelines": 5636,
      "ĠChildren": 5637,
      "Ġsacrifice": 5638,
      "Ġfolks": 5639,
      "known": 5640,
      "Ġdetermine": 5641,
      "!âĢĿ": 5642,
      ".|": 5643,
      "01": 5644,
      "39": 5645,
      "64": 5646,
      "Ad": 5647,
      "ET": 5648,
      "HP": 5649,
      "LU": 5650,
      "Let": 5651,
      "NA": 5652,
      "bolt": 5653,
      "ca": 5654,
      "col": 5655,
      "la": 5656,
      "list": 5657,
      "look": 5658,
      "paper": 5659,
      "rig": 5660,
      "syl": 5661,
      "top": 5662,
      "ties": 5663,
      "Ġtim": 5664,
      "Ġtree": 5665,
      "Ġturning": 5666,
      "inary": 5667,
      "Ġsad": 5668,
      "Ġspl": 5669,
      "Ġsought": 5670,
      "orney": 5671,
      "Ġfro": 5672,
      "Ġfold": 5673,
      "Ġfasc": 5674,
      "Ġpm": 5675,
      "Ġmand": 5676,
      "Ġmouth": 5677,
      "ala": 5678,
      "Ġdu": 5679,
      "Ġlie": 5680,
      "Ġgorgeous": 5681,
      "ĠSaf": 5682,
      "ether": 5683,
      "ĠAuthor": 5684,
      "ĠAccording": 5685,
      "aded": 5686,
      "ami": 5687,
      "Ġhero": 5688,
      "ĠMil": 5689,
      "ĠMajor": 5690,
      "ĠBur": 5691,
      "ĠBank": 5692,
      "ĠPublic": 5693,
      "ĠHart": 5694,
      "ĠHoly": 5695,
      "ĠHollywood": 5696,
      "Ġsea": 5697,
      "Ġsem": 5698,
      "ĠFore": 5699,
      "ĠFund": 5700,
      "ĠFox": 5701,
      "Ġcomedy": 5702,
      "ĠRet": 5703,
      "rible": 5704,
      "pport": 5705,
      "ushing": 5706,
      "Ġvent": 5707,
      "ĠLong": 5708,
      "ĠLady": 5709,
      "ĠLuther": 5710,
      "Ġnoticed": 5711,
      "ĠGirl": 5712,
      "Ġchose": 5713,
      "elph": 5714,
      "ĠJon": 5715,
      "ĠEnd": 5716,
      "Ġjo": 5717,
      "Ġplaced": 5718,
      "ourney": 5719,
      "aked": 5720,
      "odcast": 5721,
      "ĠUse": 5722,
      "ĠThunder": 5723,
      "ĠStock": 5724,
      "ĠInformation": 5725,
      "Ġcontest": 5726,
      "ĠKenn": 5727,
      "achment": 5728,
      "Ġunemploy": 5729,
      "Ġ38": 5730,
      "merce": 5731,
      "ints": 5732,
      "Ġeverybody": 5733,
      "Ġphr": 5734,
      "Ġshouldn": 5735,
      "Ġrelatively": 5736,
      "ĠDead": 5737,
      "Ġdecade": 5738,
      "hens": 5739,
      "ribe": 5740,
      "Ġedition": 5741,
      "Ġsubstant": 5742,
      "Ġfeelings": 5743,
      "thew": 5744,
      "Ġorders": 5745,
      "Ġcharged": 5746,
      "Ġtransport": 5747,
      "Ġmarkets": 5748,
      "gery": 5749,
      "uthors": 5750,
      "Ġproperly": 5751,
      "Ġmovies": 5752,
      "Ġconstant": 5753,
      "Ġapprox": 5754,
      "ĠOnly": 5755,
      "Ġtalked": 5756,
      "Ġchanging": 5757,
      "Ġoperating": 5758,
      "Ġreviews": 5759,
      "ĠConstitution": 5760,
      "Ġdepart": 5761,
      "Ġcondemn": 5762,
      "Ġappearance": 5763,
      "Ġcontracts": 5764,
      "Ġbringing": 5765,
      "Ġtrend": 5766,
      "Ġdiseases": 5767,
      "Ġmaterials": 5768,
      "Ġupdated": 5769,
      "Ġhonor": 5770,
      "offs": 5771,
      "Ġtesting": 5772,
      "Ġcopy": 5773,
      "Ġapplications": 5774,
      "Ġsurprise": 5775,
      "Ġsurprised": 5776,
      "Ġpulled": 5777,
      "Ġsquare": 5778,
      "ĠIran": 5779,
      "Ġdollars": 5780,
      "ĠPortland": 5781,
      "Ġeggs": 5782,
      "Ġimagine": 5783,
      "Ġsuffering": 5784,
      "Ġescape": 5785,
      "Ġfrequently": 5786,
      "ĠEarth": 5787,
      "ĠBuddha": 5788,
      "ĠAtlanta": 5789,
      "vania": 5790,
      "Ġpapers": 5791,
      "Ġpermanent": 5792,
      "Ġtelevision": 5793,
      "ĠArizona": 5794,
      "Ġcircumstances": 5795,
      "ĠSoviet": 5796,
      "sylvania": 5797,
      ".:": 5798,
      "49": 5799,
      "78": 5800,
      "Americ": 5801,
      "CD": 5802,
      "DA": 5803,
      "DF": 5804,
      "Le": 5805,
      "NT": 5806,
      "Of": 5807,
      "Part": 5808,
      "UR": 5809,
      "Well": 5810,
      "ban": 5811,
      "bar": 5812,
      "craft": 5813,
      "ection": 5814,
      "fn": 5815,
      "hat": 5816,
      "ij": 5817,
      "ki": 5818,
      "ker": 5819,
      "mitted": 5820,
      "makers": 5821,
      "nel": 5822,
      "uated": 5823,
      "wo": 5824,
      "Ġ<": 5825,
      "Ġera": 5826,
      "Ġtask": 5827,
      "Ġaf": 5828,
      "Ġaid": 5829,
      "inent": 5830,
      "eries": 5831,
      "Ġwest": 5832,
      "Ġwarn": 5833,
      "atoes": 5834,
      "ouri": 5835,
      "Ġpil": 5836,
      "ario": 5837,
      "aly": 5838,
      "Ġhate": 5839,
      "Ġdur": 5840,
      "astern": 5841,
      "Ġlit": 5842,
      "Ġload": 5843,
      "ĠIC": 5844,
      "ĠIT": 5845,
      "ĠIll": 5846,
      "Ġgro": 5847,
      "Ġgrew": 5848,
      "Ġyeah": 5849,
      "ĠSE": 5850,
      "ĠSing": 5851,
      "ĠSol": 5852,
      "etary": 5853,
      "Ġhell": 5854,
      "Ġstick": 5855,
      "irmed": 5856,
      "ĠMood": 5857,
      "ĠMount": 5858,
      "ĠBast": 5859,
      "ceived": 5860,
      "ĠPR": 5861,
      "ĠPan": 5862,
      "ĠPower": 5863,
      "oos": 5864,
      "ĠHil": 5865,
      "ĠHill": 5866,
      "Ġseats": 5867,
      "ĠFre": 5868,
      "ĠFestival": 5869,
      "Ġrom": 5870,
      "Ġrap": 5871,
      "Ġrise": 5872,
      "ĠDown": 5873,
      "ĠDuring": 5874,
      "ĠRoy": 5875,
      "abil": 5876,
      "abeth": 5877,
      "unning": 5878,
      "anda": 5879,
      "antry": 5880,
      "Ġvast": 5881,
      "ĠNation": 5882,
      "ĠLibrary": 5883,
      "opyright": 5884,
      "Ġsuit": 5885,
      "Ġexception": 5886,
      "Ġchart": 5887,
      "elle": 5888,
      "ellect": 5889,
      "umin": 5890,
      "ĠJud": 5891,
      "orthern": 5892,
      "ĠExt": 5893,
      "osis": 5894,
      "osal": 5895,
      "osure": 5896,
      "Ġjail": 5897,
      "Ġkitchen": 5898,
      "ags": 5899,
      "agues": 5900,
      "Then": 5901,
      "ĠUC": 5902,
      "Ġteen": 5903,
      "ĠStar": 5904,
      "Ġclients": 5905,
      "Ġmanage": 5906,
      "owned": 5907,
      "Ġdish": 5908,
      "orship": 5909,
      "Ġrot": 5910,
      "Ġpool": 5911,
      "cluding": 5912,
      "Ġbackground": 5913,
      "Ġcommitted": 5914,
      "Ġflu": 5915,
      "Ġflight": 5916,
      "Ġ2002": 5917,
      "ĠReview": 5918,
      "Ġdesk": 5919,
      "Ġentered": 5920,
      "ĠWho": 5921,
      "Ġintellig": 5922,
      "Ġretire": 5923,
      "Ġfinish": 5924,
      "Ġmonitor": 5925,
      "Ġsubmit": 5926,
      "Ġpersonality": 5927,
      "ĠProte": 5928,
      "ĠProject": 5929,
      "Ġsimpl": 5930,
      "Ġlocations": 5931,
      "Ġsigns": 5932,
      "azon": 5933,
      "anna": 5934,
      "!!!!": 5935,
      "Ġpassword": 5936,
      "2013": 5937,
      "lessly": 5938,
      "Ġadvent": 5939,
      "Ġapproval": 5940,
      "Ġestim": 5941,
      "Ġpossibly": 5942,
      "Ġdealing": 5943,
      "okyo": 5944,
      "Ġplane": 5945,
      "Ġphotograp": 5946,
      "ĠTeam": 5947,
      "Ġforever": 5948,
      "Ġbegins": 5949,
      "Ġcapital": 5950,
      "Ġdepth": 5951,
      "Ġinvolve": 5952,
      "ĠManning": 5953,
      "Ġdiscussed": 5954,
      "Ġzomb": 5955,
      "Ġpractices": 5956,
      "ĠCharles": 5957,
      "Ġpropri": 5958,
      "Ġlaid": 5959,
      "Ġlaunched": 5960,
      "ĠJustice": 5961,
      "Ġexistence": 5962,
      "Ġenjoyed": 5963,
      "Ġpitcher": 5964,
      "Ġentirely": 5965,
      "Ġcommunities": 5966,
      "ART": 5967,
      "ĠNorwich": 5968,
      "ĠPrescription": 5969,
      "ĠSarita": 5970,
      "Ġselected": 5971,
      "Ġindividuals": 5972,
      "Ġtreatment": 5973,
      "Ġwidely": 5974,
      "Ġbedroom": 5975,
      "Ġlistening": 5976,
      "Ġrelationships": 5977,
      "Ġmagazine": 5978,
      "Ġdescribe": 5979,
      "Ġtalent": 5980,
      "Ġreduction": 5981,
      "dden": 5982,
      "Ġearned": 5983,
      "Ġsubsid": 5984,
      "Ġinspired": 5985,
      "Ġessay": 5986,
      "ĠBrazil": 5987,
      "Ġroute": 5988,
      "Ġexpertise": 5989,
      "Ġpregnancy": 5990,
      "Ġfisheries": 5991,
      "Ġmaximum": 5992,
      "ĠFamily": 5993,
      "Ġscholars": 5994,
      ",âĢĻâĢĻ": 5995,
      "03": 5996,
      "08": 5997,
      "66": 5998,
      "79": 5999,
      "Col": 6000,
      "En": 6001,
      "Ind": 6002,
      "John": 6003,
      "Many": 6004,
      "NY": 6005,
      "Ne": 6006,
      "aun": 6007,
      "dom": 6008,
      "fast": 6009,
      "hy": 6010,
      "had": 6011,
      "high": 6012,
      "li": 6013,
      "overy": 6014,
      "pack": 6015,
      "rim": 6016,
      "sen": 6017,
      "Ġauthors": 6018,
      "rer": 6019,
      "relev": 6020,
      "oning": 6021,
      "Ġsoph": 6022,
      "Ġsister": 6023,
      "Ġwal": 6024,
      "Ġboot": 6025,
      "ora": 6026,
      "Ġfal": 6027,
      "Ġfear": 6028,
      "Ġfurn": 6029,
      "Ġflying": 6030,
      "anie": 6031,
      "Ġmic": 6032,
      "Ġmap": 6033,
      "arp": 6034,
      "Ġinning": 6035,
      "ashed": 6036,
      "iche": 6037,
      "Ġlo": 6038,
      "Ġnav": 6039,
      "Ġnurs": 6040,
      "Ġeast": 6041,
      "acing": 6042,
      "otions": 6043,
      "Ġyes": 6044,
      "Ġyield": 6045,
      "ĠSand": 6046,
      "ĠSum": 6047,
      "ĠTim": 6048,
      "Ġisol": 6049,
      "eton": 6050,
      "etic": 6051,
      "ĠAo": 6052,
      "ĠAud": 6053,
      "ownt": 6054,
      "Ġforces": 6055,
      "ĠCard": 6056,
      "secut": 6057,
      "amin": 6058,
      "amine": 6059,
      "Ġstated": 6060,
      "ĠMo": 6061,
      "ĠMiddle": 6062,
      "ĠBack": 6063,
      "ĠPS": 6064,
      "ĠPeter": 6065,
      "ategy": 6066,
      "Ġproven": 6067,
      "ulk": 6068,
      "estic": 6069,
      "abin": 6070,
      "Ġvice": 6071,
      "ĠNissan": 6072,
      "ĠLand": 6073,
      "ĠLord": 6074,
      "ĠGame": 6075,
      "outing": 6076,
      "osen": 6077,
      "ĠOF": 6078,
      "Ġbutt": 6079,
      "Ġenem": 6080,
      "Ġanyway": 6081,
      "Ġresident": 6082,
      "Ġreserved": 6083,
      "igned": 6084,
      "Ġreconst": 6085,
      "Ġrecipe": 6086,
      "Ġrob": 6087,
      "Ġ46": 6088,
      "Ġ52": 6089,
      "Thanks": 6090,
      "ĠYouth": 6091,
      "Ġdecre": 6092,
      "cipl": 6093,
      "ĠAnother": 6094,
      "Ġpubl": 6095,
      "Ġincome": 6096,
      "Ġrealize": 6097,
      "Ġstrategy": 6098,
      "Ġdeveloping": 6099,
      "Ġbelieved": 6100,
      "Ġfiled": 6101,
      "Ġstands": 6102,
      "Ġskill": 6103,
      "ĠColumb": 6104,
      "ĠAtt": 6105,
      "Ġintellect": 6106,
      "Ġlanding": 6107,
      "ĠPlace": 6108,
      "Ġdemocr": 6109,
      "ournament": 6110,
      "Ġwondering": 6111,
      "Ġdepartment": 6112,
      "Ġwrites": 6113,
      "ĠAbout": 6114,
      "Ġvoted": 6115,
      "Ġmissed": 6116,
      "Ġperfectly": 6117,
      "Ġprofession": 6118,
      "Ġemployees": 6119,
      "Ġelements": 6120,
      "Ġpackages": 6121,
      "Ġwalking": 6122,
      "However": 6123,
      "ĠImages": 6124,
      "Ġexciting": 6125,
      "Ġhighest": 6126,
      "Ġcharacteristics": 6127,
      "Ġrecognize": 6128,
      "Ġsentence": 6129,
      "Ġstrike": 6130,
      "Ġnecessarily": 6131,
      "Ġillust": 6132,
      "Ġaudience": 6133,
      "Ġdocuments": 6134,
      "ĠJackson": 6135,
      "Ġalleg": 6136,
      "Ġsustainability": 6137,
      "Ġultimately": 6138,
      "Ġassume": 6139,
      "Ġcommunication": 6140,
      "Ġassistance": 6141,
      "Ġpredict": 6142,
      "ĠIrish": 6143,
      "Ġwatched": 6144,
      "ĠMatthew": 6145,
      "ĠFIFA": 6146,
      "Ġobviously": 6147,
      "aylor": 6148,
      "Ġcartr": 6149,
      "Ġfabric": 6150,
      "Ġoccasion": 6151,
      "Ġholiday": 6152,
      "Ġcandidates": 6153,
      "Ġcrisis": 6154,
      "Ġangry": 6155,
      "ĠMicrosoft": 6156,
      "ĠVictoria": 6157,
      "ĠFoundation": 6158,
      "ĠUtah": 6159,
      "Ġvehicle": 6160,
      "ĠGermany": 6161,
      "Ġcycle": 6162,
      "Ġintended": 6163,
      "Ġresearchers": 6164,
      "Ġalcohol": 6165,
      "ĠAgriculture": 6166,
      "Ġjoined": 6167,
      "??": 6168,
      "Back": 6169,
      "BSD": 6170,
      "Can": 6171,
      "IV": 6172,
      "Mom": 6173,
      "PC": 6174,
      "Pl": 6175,
      "SH": 6176,
      "Tube": 6177,
      "XPress": 6178,
      "Your": 6179,
      "aud": 6180,
      "gus": 6181,
      "ket": 6182,
      "kins": 6183,
      "lah": 6184,
      "new": 6185,
      "ooth": 6186,
      "parent": 6187,
      "rong": 6188,
      "rors": 6189,
      "uce": 6190,
      "Â®": 6191,
      "Ġ....": 6192,
      "Ġack": 6193,
      "Ġsous": 6194,
      "atures": 6195,
      "Ġodd": 6196,
      "nda": 6197,
      "Ġcorn": 6198,
      "Ġcards": 6199,
      "Ġcooper": 6200,
      "isters": 6201,
      "orp": 6202,
      "orse": 6203,
      "esides": 6204,
      "Ġflex": 6205,
      "Ġfishing": 6206,
      "Ġpocket": 6207,
      "Ġtoss": 6208,
      "Ġmir": 6209,
      "Ġhitting": 6210,
      "leg": 6211,
      "lly": 6212,
      "stery": 6213,
      "Ġnative": 6214,
      "Ġgift": 6215,
      "Ġgrown": 6216,
      "roid": 6217,
      "Ġbeach": 6218,
      "otes": 6219,
      "ĠSent": 6220,
      "ĠSuch": 6221,
      "ĠSky": 6222,
      "ĠAp": 6223,
      "ĠCA": 6224,
      "ĠCam": 6225,
      "ĠColl": 6226,
      "ĠCinc": 6227,
      "adelph": 6228,
      "ctors": 6229,
      "Ġstruct": 6230,
      "illy": 6231,
      "ĠPC": 6232,
      "ĠWater": 6233,
      "ĠDog": 6234,
      "ĠDream": 6235,
      "ĠDoes": 6236,
      "rie": 6237,
      "ript": 6238,
      "ulum": 6239,
      "Ġdeploy": 6240,
      "usion": 6241,
      "Ġvac": 6242,
      "ĠNever": 6243,
      "ĠLog": 6244,
      "ĠLook": 6245,
      "ĠGamb": 6246,
      "Ġexecutive": 6247,
      "ĠJo": 6248,
      "ĠJam": 6249,
      "ĠJew": 6250,
      "ĠJenn": 6251,
      "ĠEp": 6252,
      "Ġjourney": 6253,
      "ardner": 6254,
      "Ġplenty": 6255,
      "Ġplanned": 6256,
      "acks": 6257,
      "Ġworried": 6258,
      "tered": 6259,
      "Ġoutput": 6260,
      "Ġkid": 6261,
      "Ġupst": 6262,
      "agon": 6263,
      "Ġnegot": 6264,
      "ĠUN": 6265,
      "Ġadapt": 6266,
      "Ġsole": 6267,
      "Ġsaved": 6268,
      "Ġarrange": 6269,
      "ipal": 6270,
      "ĠKn": 6271,
      "ĠKen": 6272,
      "cles": 6273,
      "Ġuniversity": 6274,
      "ormal": 6275,
      "Ġappeal": 6276,
      "Ġappeared": 6277,
      "Ġspok": 6278,
      "ensions": 6279,
      "ulty": 6280,
      "ulture": 6281,
      "Ġpeer": 6282,
      "rup": 6283,
      "rupt": 6284,
      "ishop": 6285,
      "anged": 6286,
      "Ġcoast": 6287,
      "Ġflo": 6288,
      "duce": 6289,
      "Ġregional": 6290,
      "athan": 6291,
      "Ġprovision": 6292,
      "elly": 6293,
      "Ġstudio": 6294,
      "Ġincorpor": 6295,
      "Ġedge": 6296,
      "Ġlovely": 6297,
      "Ġcarbon": 6298,
      "199": 6299,
      "Ġfacts": 6300,
      "Ġcarefully": 6301,
      "Ġwinter": 6302,
      "Ġpassion": 6303,
      "Ġkeeps": 6304,
      "Ġsupporting": 6305,
      "Ġadvoc": 6306,
      "Ġadvance": 6307,
      "ĠChristians": 6308,
      "Ġbroke": 6309,
      "Ġbrown": 6310,
      "Ġvisiting": 6311,
      "ĠMarine": 6312,
      "Ġnewslet": 6313,
      "Ġpositions": 6314,
      "Ġyounger": 6315,
      "ĠConvention": 6316,
      "Ġwebsites": 6317,
      "Ġanimal": 6318,
      "ĠSteve": 6319,
      "ĠâĢĺâĢĺ": 6320,
      "ĠManagement": 6321,
      "ĠCountry": 6322,
      "Ġimproved": 6323,
      "Ġrecorded": 6324,
      "ommod": 6325,
      "Ġbasement": 6326,
      "Ġsnaps": 6327,
      "Ġworkshop": 6328,
      "ĠPerhaps": 6329,
      "ĠHarry": 6330,
      "ĠMissouri": 6331,
      "Although": 6332,
      "ĠNorway": 6333,
      "Ġrisks": 6334,
      "Ġboxes": 6335,
      "Ġinstallation": 6336,
      "Ġcultural": 6337,
      "Ġrepresentatives": 6338,
      "ĠMaryland": 6339,
      "Ġsurprising": 6340,
      "Ġwalls": 6341,
      "Ġdamage": 6342,
      "Ġdamages": 6343,
      "Ġprimarily": 6344,
      "Ġloves": 6345,
      "Orate": 6346,
      "Ġpurposes": 6347,
      "Ġinterviews": 6348,
      "Ġboys": 6349,
      "Ġcarrying": 6350,
      "xxxx": 6351,
      "Ġfighting": 6352,
      "Ġdomain": 6353,
      "ĠKey": 6354,
      "Ġcontinued": 6355,
      "ĠOhio": 6356,
      "Ġdefendant": 6357,
      "Getty": 6358,
      "Ġdestro": 6359,
      "Ġexperiences": 6360,
      "ĠAustralia": 6361,
      "Ġconsistent": 6362,
      "Ġmethods": 6363,
      "ĠPhiladelph": 6364,
      "Ġapplied": 6365,
      "ĠFilm": 6366,
      "ĠDevadatta": 6367,
      "Ġdisappoint": 6368,
      "Ġvolunteer": 6369,
      "ĠPennsylvania": 6370,
      "ĠHistory": 6371,
      "igrants": 6372,
      "ĠMedicine": 6373,
      "Ġconclusion": 6374,
      "ĠColorado": 6375,
      "Ġexclusive": 6376,
      "ĠJobs": 6377,
      "Ġinstructions": 6378,
      "Ġdelicious": 6379,
      "ĠProfessor": 6380,
      "ĠJoseph": 6381,
      "Ġsucceed": 6382,
      "ĠExperience": 6383,
      "Ġwithdraw": 6384,
      "ĠThunderbolt": 6385,
      "ĠBastoy": 6386,
      "Ġfalse": 6387,
      "Ġacknow": 6388,
      "ĠPhiladelphia": 6389,
      "34": 6390,
      "35": 6391,
      "CA": 6392,
      "Did": 6393,
      "First": 6394,
      "Follow": 6395,
      "Other": 6396,
      "Ste": 6397,
      "Sign": 6398,
      "cks": 6399,
      "eper": 6400,
      "free": 6401,
      "ixt": 6402,
      "live": 6403,
      "rich": 6404,
      "whel": 6405,
      "ym": 6406,
      "Â©": 6407,
      "Ġing": 6408,
      "Ġtro": 6409,
      "Ġawards": 6410,
      "hetic": 6411,
      "onic": 6412,
      "Ġsod": 6413,
      "Ġwra": 6414,
      "Ġcam": 6415,
      "Ġcable": 6416,
      "isit": 6417,
      "isons": 6418,
      "Ġbull": 6419,
      "Ġbath": 6420,
      "Ġfib": 6421,
      "ano": 6422,
      "Ġtox": 6423,
      "Ġmel": 6424,
      "ari": 6425,
      "arry": 6426,
      "Ġdim": 6427,
      "Ġdyn": 6428,
      "icing": 6429,
      "icial": 6430,
      "oms": 6431,
      "Ġlibr": 6432,
      "sters": 6433,
      "Ġreference": 6434,
      "Ġgather": 6435,
      "uted": 6436,
      "otal": 6437,
      "Ġyellow": 6438,
      "ĠSus": 6439,
      "ĠSant": 6440,
      "ĠSign": 6441,
      "ĠSox": 6442,
      "ĠTro": 6443,
      "ĠTaylor": 6444,
      "ĠAwards": 6445,
      "Ġforms": 6446,
      "ĠCare": 6447,
      "ĠCause": 6448,
      "ads": 6449,
      "uries": 6450,
      "igible": 6451,
      "Ġheaven": 6452,
      "Ġstamp": 6453,
      "ĠMP": 6454,
      "ĠMaster": 6455,
      "ĠBow": 6456,
      "ĠBase": 6457,
      "ĠBears": 6458,
      "Ġsew": 6459,
      "ĠFort": 6460,
      "ĠFisher": 6461,
      "Ġru": 6462,
      "Ġrig": 6463,
      "abilities": 6464,
      "Ġvan": 6465,
      "ĠNight": 6466,
      "ĠLive": 6467,
      "Ġsudden": 6468,
      "ĠGro": 6469,
      "ĠGames": 6470,
      "empl": 6471,
      "Ġalive": 6472,
      "ĠEducation": 6473,
      "Ġshoes": 6474,
      "allery": 6475,
      "Ġdog": 6476,
      "aken": 6477,
      "Ġouts": 6478,
      "ĠThough": 6479,
      "ĠThrough": 6480,
      "Ġadorable": 6481,
      "Ġcloud": 6482,
      "ĠInvest": 6483,
      "ĠYOU": 6484,
      "Ġagencies": 6485,
      "inkles": 6486,
      "eping": 6487,
      "Ġspin": 6488,
      "Ġscored": 6489,
      "Ġrecover": 6490,
      "ĠVer": 6491,
      "nection": 6492,
      "Ġamb": 6493,
      "Ġgrade": 6494,
      "web": 6495,
      "Ġknowing": 6496,
      "Ġreporter": 6497,
      "ĠYouTube": 6498,
      "aws": 6499,
      "away": 6500,
      "Ġindex": 6501,
      "Ġembr": 6502,
      "Ġemphas": 6503,
      "erts": 6504,
      "Ġartists": 6505,
      "Ġminimum": 6506,
      "Ġrealized": 6507,
      "ounce": 6508,
      "ucky": 6509,
      "Ġsurf": 6510,
      "Ġcarried": 6511,
      "Ġexpress": 6512,
      "Ġcompleted": 6513,
      "Ġextent": 6514,
      "Ġdistribution": 6515,
      "Ġvalid": 6516,
      "Ġsky": 6517,
      "Ġelimin": 6518,
      "Ġhopes": 6519,
      "Ġhoping": 6520,
      "Ġpossibility": 6521,
      "Ġmaint": 6522,
      "Ġmarks": 6523,
      "Ġtechnical": 6524,
      "Ġphotograph": 6525,
      "Ġconfident": 6526,
      "Ġsolo": 6527,
      "Ġswim": 6528,
      "Ġlegs": 6529,
      "ĠAmazon": 6530,
      "Ġequal": 6531,
      "ĠCanadian": 6532,
      "Ġtaxes": 6533,
      "Ann": 6534,
      "Ġzone": 6535,
      "Ġcuts": 6536,
      "efully": 6537,
      "profit": 6538,
      "Ġportfol": 6539,
      "stitutional": 6540,
      "Ġelections": 6541,
      "ĠUSA": 6542,
      "EST": 6543,
      "Ġfailure": 6544,
      "Ġcooked": 6545,
      "ĠEngland": 6546,
      "Ġconsideration": 6547,
      "Ġsearching": 6548,
      "ĠBlackboard": 6549,
      "Ġpoorly": 6550,
      "Ġanti": 6551,
      "Ġdevice": 6552,
      "Ġparticipate": 6553,
      "ĠSecret": 6554,
      "Ġsuggested": 6555,
      "Ġmedicines": 6556,
      "ĠMusic": 6557,
      "Ġprayer": 6558,
      "Ġjoining": 6559,
      "Ġargument": 6560,
      "Ġhorse": 6561,
      "genic": 6562,
      "ĠPolice": 6563,
      "ĠDaniel": 6564,
      "arrass": 6565,
      "ĠInstead": 6566,
      "Ġpartnership": 6567,
      "Ġsomewhat": 6568,
      "Ġgraph": 6569,
      "glen": 6570,
      "ĠCharlie": 6571,
      "Ġplatforms": 6572,
      "Ġhundreds": 6573,
      "Ġstrategic": 6574,
      "Ġthousands": 6575,
      "Ġmillions": 6576,
      "Ġdangerous": 6577,
      "ĠGovernment": 6578,
      "Ġclothes": 6579,
      "ĠWhether": 6580,
      "Ġtherapy": 6581,
      "Ġentitled": 6582,
      "Ġnovel": 6583,
      "Ġunderstood": 6584,
      "lastname": 6585,
      "respond": 6586,
      "Ġconsidering": 6587,
      "Ġnegoti": 6588,
      "ixture": 6589,
      "Am": 6590,
      "BM": 6591,
      "Best": 6592,
      "Don": 6593,
      "Ed": 6594,
      "LA": 6595,
      "OP": 6596,
      "Os": 6597,
      "Point": 6598,
      "Tunes": 6599,
      "cia": 6600,
      "giving": 6601,
      "kin": 6602,
      "lies": 6603,
      "mond": 6604,
      "mble": 6605,
      "mission": 6606,
      "vi": 6607,
      "ye": 6608,
      "Ġtap": 6609,
      "Ġtiny": 6610,
      "Ġtuna": 6611,
      "Ġtheatre": 6612,
      "erk": 6613,
      "Ġwit": 6614,
      "Ġcu": 6615,
      "Ġbare": 6616,
      "Ġbass": 6617,
      "Ġbatt": 6618,
      "Ġbills": 6619,
      "Ġbunch": 6620,
      "orough": 6621,
      "orters": 6622,
      "Ġpink": 6623,
      "Ġmad": 6624,
      "alog": 6625,
      "Ġhath": 6626,
      "Ġhilar": 6627,
      "Ġdining": 6628,
      "Ġduty": 6629,
      "omic": 6630,
      "lla": 6631,
      "Ġlose": 6632,
      "Ġgarden": 6633,
      "Ġefficient": 6634,
      "rovers": 6635,
      "otic": 6636,
      "ĠTenn": 6637,
      "ĠTiger": 6638,
      "ĠTokyo": 6639,
      "ĠAS": 6640,
      "ĠAst": 6641,
      "ĠAut": 6642,
      "ĠAND": 6643,
      "ĠCAS": 6644,
      "imilar": 6645,
      "igration": 6646,
      "ctic": 6647,
      "Ġhelic": 6648,
      "Ġstation": 6649,
      "Ġstuck": 6650,
      "Ġstreet": 6651,
      "ĠBB": 6652,
      "ĠBall": 6653,
      "ĠBenn": 6654,
      "iform": 6655,
      "ĠWild": 6656,
      "ĠWomen": 6657,
      "ĠWestern": 6658,
      "ĠHay": 6659,
      "ĠFollow": 6660,
      "ĠFriend": 6661,
      "Ġprot": 6662,
      "Ġconven": 6663,
      "Ġconsequ": 6664,
      "Ġconnection": 6665,
      "ĠRoo": 6666,
      "ĠRoom": 6667,
      "abb": 6668,
      "istent": 6669,
      "antic": 6670,
      "essing": 6671,
      "Ġvision": 6672,
      "ĠNH": 6673,
      "ĠNote": 6674,
      "ĠLittle": 6675,
      "oper": 6676,
      "opter": 6677,
      "ems": 6678,
      "Ġchannel": 6679,
      "Ġchosen": 6680,
      "elch": 6681,
      "ĠEs": 6682,
      "Ġshape": 6683,
      "ĠOak": 6684,
      "odd": 6685,
      "agree": 6686,
      "Ġneck": 6687,
      "active": 6688,
      "ĠStone": 6689,
      "Ġclubs": 6690,
      "Ġoffices": 6691,
      "ansen": 6692,
      "Ġquiet": 6693,
      "Ġsomehow": 6694,
      "Ġcompre": 6695,
      "ĠYet": 6696,
      "Ġaggress": 6697,
      "class": 6698,
      "Ġnewly": 6699,
      "Ġanymore": 6700,
      "Ġdismiss": 6701,
      "Ġapparently": 6702,
      "Ġspouse": 6703,
      "Ġoverwhel": 6704,
      "iley": 6705,
      "Ġrecru": 6706,
      "Ġsheets": 6707,
      "Ġeveryday": 6708,
      "Ġseek": 6709,
      "Ġaccommod": 6710,
      "Ġrepro": 6711,
      "awks": 6712,
      "Ġactions": 6713,
      "Ġguard": 6714,
      "phone": 6715,
      "ixed": 6716,
      "Ġremove": 6717,
      "Ġremedy": 6718,
      "Ġreader": 6719,
      "ĠUnion": 6720,
      "Ġposting": 6721,
      "Ġinstrument": 6722,
      "ĠArm": 6723,
      "ĠArmy": 6724,
      "Ġmini": 6725,
      "Ġcalling": 6726,
      "Ġspecim": 6727,
      "Ġbusy": 6728,
      "Ġpointed": 6729,
      "ceptions": 6730,
      "Who": 6731,
      "ĠBlue": 6732,
      "beat": 6733,
      "ĠAsh": 6734,
      "Ġsurface": 6735,
      "Ġmemories": 6736,
      "ĠShow": 6737,
      "Ġcareful": 6738,
      "Ġglad": 6739,
      "Ġlineback": 6740,
      "Ġclassroom": 6741,
      "Ġimportance": 6742,
      "Ġskin": 6743,
      "Ġdirected": 6744,
      "Ġmainly": 6745,
      "Ġpayment": 6746,
      "Ġdesigns": 6747,
      "Ġlargely": 6748,
      "State": 6749,
      "Ġswing": 6750,
      "Ġforest": 6751,
      "ĠExecutive": 6752,
      "Ġhappening": 6753,
      "Ġtempt": 6754,
      "ĠSteven": 6755,
      "ĠSteph": 6756,
      "Ġcompetitive": 6757,
      "Ġfaces": 6758,
      "Ġfacility": 6759,
      "Ġfaculty": 6760,
      "ĠManager": 6761,
      "Ġfeaturing": 6762,
      "Ġengaged": 6763,
      "aii": 6764,
      "Ġvoting": 6765,
      "backs": 6766,
      "Ġidentified": 6767,
      "Ġwarning": 6768,
      "ĠUSB": 6769,
      "Ġtreated": 6770,
      "ĠGlen": 6771,
      "Ġauthority": 6772,
      "Ġlayer": 6773,
      "ĠEdward": 6774,
      "Ġtypical": 6775,
      "Ġvisitors": 6776,
      "Ġexploring": 6777,
      "Ġcloset": 6778,
      "Ġinstalled": 6779,
      "Ġcopyright": 6780,
      "Ġrepresented": 6781,
      "Ġpatterns": 6782,
      "Ġsuggestions": 6783,
      "Ġjudgment": 6784,
      "Ġcalendar": 6785,
      "ĠCompany": 6786,
      "Ġcontinuing": 6787,
      "ĠRecords": 6788,
      "Ġhousing": 6789,
      "Ġroutine": 6790,
      "Ġtickets": 6791,
      "innati": 6792,
      "Ġincreasingly": 6793,
      "rastructure": 6794,
      "Ġregistration": 6795,
      "Ġaccurate": 6796,
      "Ġmurder": 6797,
      "ĠEssy": 6798,
      "Ġrejected": 6799,
      "ĠWalker": 6800,
      "ĠOklah": 6801,
      "ĠQuarkXPress": 6802,
      "ĠPublished": 6803,
      "ĠLOVE": 6804,
      "inema": 6805,
      "ĠEmergency": 6806,
      "Ġunemployment": 6807,
      "Ġphrase": 6808,
      "Ġenemy": 6809,
      "ĠBaseball": 6810,
      "02": 6811,
      "42": 6812,
      "DC": 6813,
      "DM": 6814,
      "EL": 6815,
      "Every": 6816,
      "Go": 6817,
      "ML": 6818,
      "Sc": 6819,
      "Sorry": 6820,
      "aac": 6821,
      "bel": 6822,
      "cont": 6823,
      "called": 6824,
      "front": 6825,
      "ghan": 6826,
      "iac": 6827,
      "lock": 6828,
      "pat": 6829,
      "pound": 6830,
      "press": 6831,
      "rat": 6832,
      "table": 6833,
      "viously": 6834,
      "west": 6835,
      "zes": 6836,
      "Ã¦": 6837,
      "Ġid": 6838,
      "inue": 6839,
      "inations": 6840,
      "real": 6841,
      "Ġsession": 6842,
      "Ġwet": 6843,
      "Ġwine": 6844,
      "ndry": 6845,
      "isp": 6846,
      "isan": 6847,
      "Ġbuck": 6848,
      "inger": 6849,
      "Ġpu": 6850,
      "Ġpra": 6851,
      "anes": 6852,
      "anning": 6853,
      "Ġmal": 6854,
      "Ġmixture": 6855,
      "alian": 6856,
      "alax": 6857,
      "Ġinfect": 6858,
      "Ġhung": 6859,
      "Ġdownt": 6860,
      "Ġnob": 6861,
      "Ġgay": 6862,
      "Ġgear": 6863,
      "Ġease": 6864,
      "acuse": 6865,
      "iders": 6866,
      "etts": 6867,
      "ĠAT": 6868,
      "ĠAnt": 6869,
      "owb": 6870,
      "ĠCC": 6871,
      "ĠCase": 6872,
      "ĠCross": 6873,
      "sell": 6874,
      "imal": 6875,
      "urches": 6876,
      "Ġupper": 6877,
      "ili": 6878,
      "olver": 6879,
      "Ġstim": 6880,
      "Ġstood": 6881,
      "ĠMal": 6882,
      "ĠMult": 6883,
      "ĠMLB": 6884,
      "ĠBO": 6885,
      "Ġweird": 6886,
      "ĠPin": 6887,
      "ĠPen": 6888,
      "ĠPot": 6889,
      "ifest": 6890,
      "ĠHam": 6891,
      "ĠHard": 6892,
      "ĠHosp": 6893,
      "ĠFire": 6894,
      "ĠField": 6895,
      "Ġrival": 6896,
      "Ġproc": 6897,
      "ĠDaily": 6898,
      "ĠRound": 6899,
      "rier": 6900,
      "riers": 6901,
      "Ġ(\"": 6902,
      "think": 6903,
      "thony": 6904,
      "uscript": 6905,
      "usetts": 6906,
      "abled": 6907,
      "unic": 6908,
      "unction": 6909,
      "ĠNOT": 6910,
      "ivered": 6911,
      "Ġchief": 6912,
      "eless": 6913,
      "ĠJerry": 6914,
      "ĠEnt": 6915,
      "ĠEconom": 6916,
      "ĠERA": 6917,
      "ĠEastern": 6918,
      "Ġleaving": 6919,
      "ours": 6920,
      "ackets": 6921,
      "iece": 6922,
      "Ġadmit": 6923,
      "Ġsav": 6924,
      "Ġtele": 6925,
      "ĠYeah": 6926,
      "ĠKl": 6927,
      "claim": 6928,
      "achusetts": 6929,
      "Ġunus": 6930,
      "Ġunits": 6931,
      "Ġ300": 6932,
      "Ġdiscipl": 6933,
      "Ġtheme": 6934,
      "Ġspoons": 6935,
      "ordan": 6936,
      "Ġworkfl": 6937,
      "Ġfee": 6938,
      "Ġtwenty": 6939,
      "itty": 6940,
      "ĠVe": 6941,
      "itionally": 6942,
      "Ġrow": 6943,
      "Ġgrant": 6944,
      "weight": 6945,
      "issions": 6946,
      "anger": 6947,
      "Ġ56": 6948,
      "Ġconsign": 6949,
      "ternal": 6950,
      "Ġacting": 6951,
      "Ġpharm": 6952,
      "Ġguidelines": 6953,
      "Ġreliable": 6954,
      "ĠWhich": 6955,
      "ĠiTunes": 6956,
      "Ġsyn": 6957,
      "Ġfinance": 6958,
      "Ġinsight": 6959,
      "ĠProv": 6960,
      "ĠBlu": 6961,
      "Ġfollows": 6962,
      "Ġobl": 6963,
      "Ġobt": 6964,
      "Ġproperties": 6965,
      "Ġmoves": 6966,
      "Ġextrem": 6967,
      "Ġsocks": 6968,
      "Ġdisturb": 6969,
      "Ġdistinct": 6970,
      "Ġeffectively": 6971,
      "Ġvarves": 6972,
      "ĠBron": 6973,
      "Ġopposite": 6974,
      "Ġpossibilities": 6975,
      "Ġreceiving": 6976,
      "Ġprocesses": 6977,
      "Ġairport": 6978,
      "Ġhumor": 6979,
      "ĠSpirit": 6980,
      "Ġsuccessfully": 6981,
      "Ġperforming": 6982,
      "Ġbasket": 6983,
      "Ġsinging": 6984,
      "Ġwriters": 6985,
      "Ġpractical": 6986,
      "Ġaddresses": 6987,
      "ĠChargers": 6988,
      "Ġprisoners": 6989,
      "ommy": 6990,
      "Ġburden": 6991,
      "ĠAssist": 6992,
      "Ġprints": 6993,
      "Ġemployment": 6994,
      "Ġelsewhere": 6995,
      "Ġinfo": 6996,
      "Ġinfrastructure": 6997,
      "ĠPrinc": 6998,
      "Ġstayed": 6999,
      "Ġrequirement": 7000,
      "yracuse": 7001,
      "Ġbeauty": 7002,
      "Ġaccepted": 7003,
      "Ġmilk": 7004,
      "ĠParis": 7005,
      "Ġ1970": 7006,
      "Ġconvention": 7007,
      "Ġwindow": 7008,
      "ĠÂ£": 7009,
      "ĠÂ§": 7010,
      "ĠÂ»": 7011,
      "Ġtreaty": 7012,
      "Ġdigest": 7013,
      "Ġimprovements": 7014,
      "ĠControl": 7015,
      "Ġparticipants": 7016,
      "Ġdecline": 7017,
      "Ġtalks": 7018,
      "Ġillness": 7019,
      "Ġanswers": 7020,
      "Reg": 7021,
      "Ġimmediate": 7022,
      "Ġjudge": 7023,
      "Ġgraduate": 7024,
      "Ġconsumer": 7025,
      "Ġdomin": 7026,
      "Ġembarrass": 7027,
      "Ġinspiration": 7028,
      "ĠMexican": 7029,
      "Ġresponsibility": 7030,
      "Ġmassive": 7031,
      "Ġviolence": 7032,
      "Ġaffected": 7033,
      "ĠIII": 7034,
      "ĠInte": 7035,
      "Ġadults": 7036,
      "ĠSocial": 7037,
      "Ġexamples": 7038,
      "Ġgarage": 7039,
      "Ġperspective": 7040,
      "Ġlifest": 7041,
      "Ġliterally": 7042,
      "Ġsettled": 7043,
      "Ġhistorical": 7044,
      "Ġlegislation": 7045,
      "Ġlicens": 7046,
      "ĠJersey": 7047,
      "heimer": 7048,
      "Ġepis": 7049,
      "Ġfingers": 7050,
      "Apple": 7051,
      "Ġtrouble": 7052,
      "ĠMuslims": 7053,
      "Ġmerely": 7054,
      "ĠSometimes": 7055,
      "Ġaccomplish": 7056,
      "inho": 7057,
      "Ġsupra": 7058,
      "works": 7059,
      "ĠSafety": 7060,
      "ĠLutherglen": 7061,
      "Ġcondemnation": 7062,
      "ĠCincinnati": 7063,
      "Ġportfolio": 7064,
      "86": 7065,
      "DP": 7066,
      "Each": 7067,
      "FS": 7068,
      "His": 7069,
      "Mr": 7070,
      "Most": 7071,
      "Oh": 7072,
      "Oct": 7073,
      "RT": 7074,
      "RU": 7075,
      "Sec": 7076,
      "TH": 7077,
      "can": 7078,
      "cific": 7079,
      "hab": 7080,
      "iit": 7081,
      "len": 7082,
      "lers": 7083,
      "long": 7084,
      "making": 7085,
      "mend": 7086,
      "tp": 7087,
      "tr": 7088,
      "tion": 7089,
      "uper": 7090,
      "uable": 7091,
      "xy": 7092,
      "ype": 7093,
      "Ã³": 7094,
      "Ġ)": 7095,
      "Ġtail": 7096,
      "Ġtaught": 7097,
      "inity": 7098,
      "reland": 7099,
      "reets": 7100,
      "Ġoven": 7101,
      "Ġburn": 7102,
      "Ġbands": 7103,
      "Ġbabies": 7104,
      "Ġfat": 7105,
      "Ġfur": 7106,
      "ingu": 7107,
      "Ġpush": 7108,
      "Ġpicks": 7109,
      "Ġmut": 7110,
      "Ġmaps": 7111,
      "Ġdat": 7112,
      "Ġdict": 7113,
      "Ġdates": 7114,
      "Ġdiet": 7115,
      "asters": 7116,
      "icit": 7117,
      "oman": 7118,
      "omatic": 7119,
      "Ġlock": 7120,
      "Ġlatter": 7121,
      "âĢ¢": 7122,
      "Ġgun": 7123,
      "Ġgroom": 7124,
      "Ġeating": 7125,
      "Ġeffic": 7126,
      "roch": 7127,
      "ache": 7128,
      "ota": 7129,
      "otional": 7130,
      "ĠSP": 7131,
      "ĠSU": 7132,
      "ĠSher": 7133,
      "ĠSearch": 7134,
      "ĠSports": 7135,
      "ĠTig": 7136,
      "owed": 7137,
      "Ġfort": 7138,
      "ĠCH": 7139,
      "ĠCat": 7140,
      "ĠCirc": 7141,
      "ĠCivil": 7142,
      "ĠCreek": 7143,
      "ĠCancer": 7144,
      "iments": 7145,
      "Ġheav": 7146,
      "ilos": 7147,
      "ola": 7148,
      "Ġstable": 7149,
      "Ġstopped": 7150,
      "ĠMt": 7151,
      "ĠBible": 7152,
      "ĠBowl": 7153,
      "Ġanch": 7154,
      "Ġancient": 7155,
      "gend": 7156,
      "ĠHa": 7157,
      "Ġramp": 7158,
      "Ġraw": 7159,
      "ĠDJ": 7160,
      "ĠDu": 7161,
      "ĠRocks": 7162,
      "uling": 7163,
      "Ġdefect": 7164,
      "Ġdeals": 7165,
      "Ġ(@": 7166,
      "essions": 7167,
      "ĠNick": 7168,
      "ĠNuclear": 7169,
      "ops": 7170,
      "opamine": 7171,
      "Ġsufficient": 7172,
      "ĠGra": 7173,
      "quare": 7174,
      "Ġexcess": 7175,
      "Ġshr": 7176,
      "Ġjewelry": 7177,
      "raid": 7178,
      "Ġplain": 7179,
      "Ġdose": 7180,
      "odon": 7181,
      "Ġhasn": 7182,
      "teen": 7183,
      "ieve": 7184,
      "agers": 7185,
      "apore": 7186,
      "Ġads": 7187,
      "ongo": 7188,
      "Ġtender": 7189,
      "Ġarrest": 7190,
      "Ġquant": 7191,
      "Ġcomponents": 7192,
      "Ġmanuscript": 7193,
      "Ġagon": 7194,
      "Ġunlike": 7195,
      "Ġdisagree": 7196,
      "Ġspr": 7197,
      "ensus": 7198,
      "Ġscene": 7199,
      "Ġrecip": 7200,
      "orses": 7201,
      "Ġfirstname": 7202,
      "Ġblow": 7203,
      "Ġcommittee": 7204,
      "Ġdonated": 7205,
      "rowave": 7206,
      "Ġ1960": 7207,
      "Ġregister": 7208,
      "Ġgreatest": 7209,
      "ĠSeason": 7210,
      "phy": 7211,
      "Ġentries": 7212,
      "ĠAndroid": 7213,
      "Ġremoved": 7214,
      "ello": 7215,
      "Ġevil": 7216,
      "Ġattached": 7217,
      "Ġfindings": 7218,
      "Ġcheer": 7219,
      "ĠArab": 7220,
      "Ġedited": 7221,
      "aho": 7222,
      "Ġdifferences": 7223,
      "Ġstatements": 7224,
      "Ġexperts": 7225,
      "Ġinterface": 7226,
      "ĠAsia": 7227,
      "Ġcream": 7228,
      "Ġwinners": 7229,
      "Ġheaded": 7230,
      "ĠAdv": 7231,
      "Ġprogrammes": 7232,
      "Ġseconds": 7233,
      "Ġtopics": 7234,
      "Ġcrash": 7235,
      "arsh": 7236,
      "Ġblogging": 7237,
      "Ġapproved": 7238,
      "Ġprofit": 7239,
      "Ġnewspaper": 7240,
      "Ġaircraft": 7241,
      "Ġhumans": 7242,
      "Ġdram": 7243,
      "Ġpromote": 7244,
      "Ġpromised": 7245,
      "Ġforecast": 7246,
      "Ġcapable": 7247,
      "Ġlights": 7248,
      "Ġanima": 7249,
      "Ġpurchases": 7250,
      "Ġdiscussions": 7251,
      "Ġpainting": 7252,
      "Ġelectronic": 7253,
      "idden": 7254,
      "ync": 7255,
      "Once": 7256,
      "ĠWorks": 7257,
      "Ġcritics": 7258,
      "ylon": 7259,
      "Ġcauses": 7260,
      "ĠHerman": 7261,
      "Ġmoral": 7262,
      "Ġexplan": 7263,
      "Ġexplore": 7264,
      "Ġhosting": 7265,
      "Ġerror": 7266,
      "Ġstrikes": 7267,
      "ĠPatrick": 7268,
      "Ġdevices": 7269,
      "Ġattempting": 7270,
      "Ġconstitute": 7271,
      "Ġconnected": 7272,
      "ĠSecurity": 7273,
      "2008": 7274,
      "Ġcelebrate": 7275,
      "Ġencouraged": 7276,
      "Ġsoldiers": 7277,
      "Ġslowly": 7278,
      "Ġresponsible": 7279,
      "Ġnormally": 7280,
      "Ġultimate": 7281,
      "ĠStudies": 7282,
      "Ġrenew": 7283,
      "related": 7284,
      "Ġliterature": 7285,
      "Ġimplementation": 7286,
      "ĠDenver": 7287,
      "ĠFathers": 7288,
      "William": 7289,
      "ĠDemocrats": 7290,
      "Ġridic": 7291,
      "Ġscenes": 7292,
      "Ġweapons": 7293,
      "Ġclinical": 7294,
      "Ġsurrounding": 7295,
      "Ġchampionship": 7296,
      "ĠFACE": 7297,
      "Ġpillow": 7298,
      "Ġcommitment": 7299,
      "ĠHawaii": 7300,
      "Ġjunior": 7301,
      "Ġapproximately": 7302,
      "Ġafraid": 7303,
      "ĠGrove": 7304,
      "Ġhilarious": 7305,
      "ĠRooster": 7306,
      "ĠOklahoma": 7307,
      ".;": 7308,
      "600": 7309,
      "95": 7310,
      "96": 7311,
      "Add": 7312,
      "Bump": 7313,
      "EW": 7314,
      "Fe": 7315,
      "Fl": 7316,
      "GB": 7317,
      "Like": 7318,
      "Note": 7319,
      "Ok": 7320,
      "SP": 7321,
      "Since": 7322,
      "Yes": 7323,
      "afe": 7324,
      "avers": 7325,
      "bat": 7326,
      "cons": 7327,
      "des": 7328,
      "fs": 7329,
      "pc": 7330,
      "page": 7331,
      "rary": 7332,
      "raint": 7333,
      "ses": 7334,
      "tastic": 7335,
      "uing": 7336,
      "worth": 7337,
      "yes": 7338,
      "Ġtight": 7339,
      "Ġties": 7340,
      "Ġtie": 7341,
      "Ġtire": 7342,
      "Ġtorn": 7343,
      "Ġtired": 7344,
      "Ġtape": 7345,
      "ini": 7346,
      "Ġske": 7347,
      "Ġwire": 7348,
      "aters": 7349,
      "Ġcru": 7350,
      "isms": 7351,
      "Ġbul": 7352,
      "Ġfancy": 7353,
      "Ġfruit": 7354,
      "Ġpure": 7355,
      "Ġpump": 7356,
      "Ġpushed": 7357,
      "Ġpiano": 7358,
      "anwhile": 7359,
      "Ġinner": 7360,
      "Ġham": 7361,
      "Ġhun": 7362,
      "Ġhide": 7363,
      "Ġthrew": 7364,
      "ione": 7365,
      "Ġlun": 7366,
      "stream": 7367,
      "Ġnest": 7368,
      "Ġrender": 7369,
      "ĠIRS": 7370,
      "ĠIreland": 7371,
      "Ġbear": 7372,
      "Ġyog": 7373,
      "ĠSon": 7374,
      "ĠTre": 7375,
      "Ġisle": 7376,
      "ĠCast": 7377,
      "semble": 7378,
      "aders": 7379,
      "olar": 7380,
      "Ġstup": 7381,
      "ĠMen": 7382,
      "ĠMic": 7383,
      "ĠMain": 7384,
      "ĠMake": 7385,
      "ĠMax": 7386,
      "ĠBan": 7387,
      "ĠBal": 7388,
      "ĠBoy": 7389,
      "ĠBrian": 7390,
      "ĠPers": 7391,
      "ĠPoint": 7392,
      "Ġhabit": 7393,
      "Ġath": 7394,
      "Ġrat": 7395,
      "Ġraces": 7396,
      "Ġprohib": 7397,
      "ĠDid": 7398,
      "ĠDrive": 7399,
      "ĠRo": 7400,
      "ĠRus": 7401,
      "ĠRog": 7402,
      "ĠRock": 7403,
      "ĠRonald": 7404,
      "ulf": 7405,
      "http": 7406,
      "rome": 7407,
      "abase": 7408,
      "unn": 7409,
      "andBump": 7410,
      "essed": 7411,
      "ĠLee": 7412,
      "ĠGI": 7413,
      "quir": 7414,
      "Ġextend": 7415,
      "uster": 7416,
      "elf": 7417,
      "ĠJoy": 7418,
      "ĠJordan": 7419,
      "Ġship": 7420,
      "Ġshots": 7421,
      "Ġshift": 7422,
      "Ġshares": 7423,
      "ĠOper": 7424,
      "Ġjoy": 7425,
      "Ġdoors": 7426,
      "Ġworst": 7427,
      "odies": 7428,
      "Ġoutcome": 7429,
      "Ġmeat": 7430,
      "ĠUK": 7431,
      "ĠThink": 7432,
      "Ġsauce": 7433,
      "Ġimplic": 7434,
      "Ġque": 7435,
      "Ġquote": 7436,
      "Ġcontrovers": 7437,
      "ĠChief": 7438,
      "Ġagric": 7439,
      "icking": 7440,
      "Ġresource": 7441,
      "Ġ34": 7442,
      "Ġ37": 7443,
      "Ġweren": 7444,
      "Ġspo": 7445,
      "Ġspy": 7446,
      "ĠHell": 7447,
      "ultural": 7448,
      "obile": 7449,
      "Ġsche": 7450,
      "ĠViet": 7451,
      "Ġblind": 7452,
      "Ġblocks": 7453,
      "week": 7454,
      "oving": 7455,
      "Ġbrill": 7456,
      "Ġbranch": 7457,
      "Ġcoordin": 7458,
      "Ġwanting": 7459,
      "Ġ59": 7460,
      "Thank": 7461,
      "Ġconservative": 7462,
      "Ġconsensus": 7463,
      "Ġgreatly": 7464,
      "Ġphilos": 7465,
      "Ġinvited": 7466,
      "ĠAnderson": 7467,
      "Ġpreserved": 7468,
      "riculum": 7469,
      "Ġsmooth": 7470,
      "Ġchew": 7471,
      "ĠAnthony": 7472,
      "ĠArts": 7473,
      "Ġteamm": 7474,
      "Ġworldwide": 7475,
      "Ġpersonally": 7476,
      "Ġrequests": 7477,
      "ucking": 7478,
      "Web": 7479,
      "Ġgotten": 7480,
      "Ġstrange": 7481,
      "Ġstruck": 7482,
      "ĠBefore": 7483,
      "Ġdefault": 7484,
      "Ġfounded": 7485,
      "Ġordered": 7486,
      "Ġputs": 7487,
      "ĠIsaac": 7488,
      "tenance": 7489,
      "Ġexpans": 7490,
      "Ġbelieves": 7491,
      "ĠAdminist": 7492,
      "Ġdetect": 7493,
      "Ġobtain": 7494,
      "Ġobiit": 7495,
      "Ġcorrespond": 7496,
      "Ġcrack": 7497,
      "ĠOrgan": 7498,
      "Ġdistance": 7499,
      "Ġtrail": 7500,
      "Ġtraged": 7501,
      "Ġprofile": 7502,
      "Ġideal": 7503,
      "Ġresulting": 7504,
      "Ġformat": 7505,
      "Ġmusical": 7506,
      "books": 7507,
      "ĠPlus": 7508,
      "Ġsituations": 7509,
      "appy": 7510,
      "onym": 7511,
      "Ġsolve": 7512,
      "Ġinvestors": 7513,
      "Ġchecking": 7514,
      "Ġchecked": 7515,
      "Ġpromotion": 7516,
      "Ġoperate": 7517,
      "Ġreviewed": 7518,
      "Ġequipped": 7519,
      "Ġmeetings": 7520,
      "Ġincreases": 7521,
      "ĠSpan": 7522,
      "ĠConference": 7523,
      "astery": 7524,
      "Ġdelivered": 7525,
      "iveness": 7526,
      "Ġaccounts": 7527,
      "Ġfaced": 7528,
      "Ġreasonable": 7529,
      "Ġvotes": 7530,
      "Ġmoments": 7531,
      "Ġportra": 7532,
      "Ġphysics": 7533,
      "Ġproposed": 7534,
      "Ġorigin": 7535,
      "ĠGlobal": 7536,
      "Ġprinted": 7537,
      "REE": 7538,
      "AND": 7539,
      "Christ": 7540,
      "ĠMcG": 7541,
      "Ġclosing": 7542,
      "ĠImp": 7543,
      "haust": 7544,
      "Ġrecognized": 7545,
      "Ġattempts": 7546,
      "Ġcopies": 7547,
      "Ġstatistics": 7548,
      "Ġapartment": 7549,
      "ĠEnter": 7550,
      "Ġregardless": 7551,
      "ooms": 7552,
      "Ġlabels": 7553,
      "Ġtalented": 7554,
      "Ġmedication": 7555,
      "Ġmedicine": 7556,
      "zzle": 7557,
      "Ġdomestic": 7558,
      "ĠCorp": 7559,
      "Ġcorrectly": 7560,
      "Ġutility": 7561,
      "Ġhospital": 7562,
      "Ġbirthday": 7563,
      "Ġfeedback": 7564,
      "Ġsensitive": 7565,
      "Ġconducted": 7566,
      "Ġchapel": 7567,
      "Sept": 7568,
      "Ġsuspect": 7569,
      "aylord": 7570,
      "Ġproceedings": 7571,
      "Ġadopted": 7572,
      "ĠTechnology": 7573,
      "Ġfantastic": 7574,
      "Ġfantasy": 7575,
      "Ġpowder": 7576,
      "Ġminority": 7577,
      "Ġsurvive": 7578,
      "Ġrevealed": 7579,
      "ĠMemorial": 7580,
      "Ġaltar": 7581,
      "Ġclimbing": 7582,
      "Ġdialogue": 7583,
      "Ġranked": 7584,
      "ĠLearning": 7585,
      "ĠElectric": 7586,
      "ĠSurv": 7587,
      "Ġprospect": 7588,
      "Ġannouncement": 7589,
      "ĠChampion": 7590,
      "Ġtweets": 7591,
      "Ġnegative": 7592,
      "Ġtouchdowns": 7593,
      "About": 7594,
      "ĠBabyandBump": 7595,
      "Ġsatisf": 7596,
      "ĠBofinkles": 7597,
      "Ġuniversities": 7598,
      "ĠAuthority": 7599,
      "Ġsubstantial": 7600,
      "American": 7601,
      "ĠNationals": 7602,
      "ĠProtection": 7603,
      "haden": 7604,
      "ĠPSY": 7605,
      "Momtastic": 7606,
      "ĠSentra": 7607,
      "ĠJennifer": 7608,
      "Ġsoda": 7609,
      "Ġdynamic": 7610,
      "ĠCauseway": 7611,
      "Ġsuddenly": 7612,
      "ĠSecretary": 7613,
      "ĠStephanie": 7614,
      "Ġunusual": 7615,
      "Ġdatabase": 7616,
      "ĠTigers": 7617,
      "Ġstupid": 7618,
      "43": 7619,
      "54": 7620,
      "92": 7621,
      "?!": 7622,
      "Bec": 7623,
      "Che": 7624,
      "Dis": 7625,
      "GE": 7626,
      "Gener": 7627,
      "Have": 7628,
      "Phot": 7629,
      "RC": 7630,
      "Te": 7631,
      "bal": 7632,
      "cur": 7633,
      "da": 7634,
      "epend": 7635,
      "lam": 7636,
      "mith": 7637,
      "made": 7638,
      "ns": 7639,
      "nic": 7640,
      "po": 7641,
      "ras": 7642,
      "she": 7643,
      "tra": 7644,
      "ugin": 7645,
      "vocation": 7646,
      "wind": 7647,
      "ystem": 7648,
      "Ġille": 7649,
      "Ġtons": 7650,
      "Ġtale": 7651,
      "held": 7652,
      "inson": 7653,
      "rec": 7654,
      "Ġsample": 7655,
      "Ġwaves": 7656,
      "atics": 7657,
      "Ġcul": 7658,
      "Ġcarn": 7659,
      "Ġcinema": 7660,
      "itative": 7661,
      "Ġbond": 7662,
      "Ġboss": 7663,
      "Ġbacon": 7664,
      "organ": 7665,
      "Ġfo": 7666,
      "Ġfaster": 7667,
      "Ġfisc": 7668,
      "Ġpace": 7669,
      "Ġpodcast": 7670,
      "anut": 7671,
      "anne": 7672,
      "Ġmole": 7673,
      "alo": 7674,
      "Ġthin": 7675,
      "icians": 7676,
      "Ġlin": 7677,
      "enting": 7678,
      "Ġrefe": 7679,
      "Ġgamb": 7680,
      "ĠSub": 7681,
      "ĠTO": 7682,
      "ĠTurn": 7683,
      "ĠTrib": 7684,
      "idays": 7685,
      "idges": 7686,
      "ĠAff": 7687,
      "ĠAccess": 7688,
      "ĠCt": 7689,
      "ĠCost": 7690,
      "ĠCook": 7691,
      "ĠCreat": 7692,
      "ader": 7693,
      "iminal": 7694,
      "urbs": 7695,
      "Ġstir": 7696,
      "ĠMah": 7697,
      "ĠMaine": 7698,
      "ĠBand": 7699,
      "ĠBox": 7700,
      "ĠBush": 7701,
      "ĠBeng": 7702,
      "cend": 7703,
      "Ġanger": 7704,
      "ĠPack": 7705,
      "lder": 7706,
      "ĠWOW": 7707,
      "ĠHy": 7708,
      "ĠHon": 7709,
      "ĠHol": 7710,
      "ĠHop": 7711,
      "ĠHem": 7712,
      "ĠHold": 7713,
      "ĠHaving": 7714,
      "ĠHansen": 7715,
      "Ġattended": 7716,
      "ĠFour": 7717,
      "ĠFurther": 7718,
      "ĠFishing": 7719,
      "ĠFREE": 7720,
      "Ġriver": 7721,
      "Ġrounds": 7722,
      "Ġproof": 7723,
      "ĠDom": 7724,
      "ĠDate": 7725,
      "ĠDise": 7726,
      "ĠDraft": 7727,
      "ĠDni": 7728,
      "ĠDNA": 7729,
      "Ġcontend": 7730,
      "Ġcomic": 7731,
      "ĠRoss": 7732,
      "rik": 7733,
      "riott": 7734,
      "ĠNavy": 7735,
      "ĠLy": 7736,
      "ĠLab": 7737,
      "ĠLight": 7738,
      "opher": 7739,
      "ĠGre": 7740,
      "eman": 7741,
      "Ġexists": 7742,
      "Ġexecut": 7743,
      "Ġcha": 7744,
      "Ġchat": 7745,
      "Ġchain": 7746,
      "Ġchurches": 7747,
      "ĠJr": 7748,
      "ĠJosh": 7749,
      "ĠEr": 7750,
      "ĠEag": 7751,
      "osa": 7752,
      "osit": 7753,
      "ĠOK": 7754,
      "ĠON": 7755,
      "ĠOs": 7756,
      "ĠOcean": 7757,
      "Ġju": 7758,
      "Ġdozen": 7759,
      "ourne": 7760,
      "Ġupset": 7761,
      "aped": 7762,
      "ureau": 7763,
      "acts": 7764,
      "actor": 7765,
      "ĠThus": 7766,
      "Ġadverse": 7767,
      "Ġsaving": 7768,
      "pty": 7769,
      "ĠStew": 7770,
      "Ġclap": 7771,
      "Ġarmed": 7772,
      "ansas": 7773,
      "Ġcompos": 7774,
      "Ġcontroll": 7775,
      "ĠChap": 7776,
      "ĠChase": 7777,
      "ĠKyle": 7778,
      "closed": 7779,
      "Ġunion": 7780,
      "Ġuncon": 7781,
      "Ġunknown": 7782,
      "Ġ36": 7783,
      "Ġprisons": 7784,
      "Ġspoke": 7785,
      "avid": 7786,
      "Ġoverse": 7787,
      "Ġworkforce": 7788,
      "obb": 7789,
      "Ġscar": 7790,
      "Ġrose": 7791,
      "Ġ45": 7792,
      "Ġbrass": 7793,
      "Ġcovers": 7794,
      "Ġcoverage": 7795,
      "Ġcoffe": 7796,
      "Ġaddict": 7797,
      "Ġflour": 7798,
      "Ġflute": 7799,
      "Ġflavor": 7800,
      "Think": 7801,
      "ĠReed": 7802,
      "Ġ196": 7803,
      "comes": 7804,
      "comfort": 7805,
      "Ġguitar": 7806,
      "Ġpreserve": 7807,
      "Ġsym": 7808,
      "ersonal": 7809,
      "ĠComment": 7810,
      "ologist": 7811,
      "Ġsmile": 7812,
      "Ġsmell": 7813,
      "ifications": 7814,
      "Ġchem": 7815,
      "Ġretreat": 7816,
      "ĠAnne": 7817,
      "Ġsubsequ": 7818,
      "ĠProp": 7819,
      "Ġserver": 7820,
      "Ġseriously": 7821,
      "iversary": 7822,
      "bered": 7823,
      "ĠBeh": 7824,
      "ĠBeaut": 7825,
      "Ġsurvey": 7826,
      "Ġcars": 7827,
      "Ġcarries": 7828,
      "Ġfactor": 7829,
      "Ġweekly": 7830,
      "ĠShould": 7831,
      "Ġmodest": 7832,
      "Ġmodelling": 7833,
      "Ġpublication": 7834,
      "ĠAdam": 7835,
      "Ġgovernments": 7836,
      "ikes": 7837,
      "ĠLeg": 7838,
      "Ġcrime": 7839,
      "ught": 7840,
      "Ġblogger": 7841,
      "Ġchildhood": 7842,
      "ĠCommon": 7843,
      "Ġ07": 7844,
      "Ġkinds": 7845,
      "Ġframe": 7846,
      "ĠMarl": 7847,
      "Ġdriven": 7848,
      "oked": 7849,
      "Ġrefused": 7850,
      "ĠPhys": 7851,
      "Ġpayments": 7852,
      "Ġlesson": 7853,
      "Ġconfidence": 7854,
      "Ġconfirmed": 7855,
      "ĠTea": 7856,
      "Ġofferor": 7857,
      "Ġpromise": 7858,
      "ĠSpace": 7859,
      "Ġmenhaden": 7860,
      "Ġcapac": 7861,
      "Ġdelay": 7862,
      "Ġperformances": 7863,
      "Ġtaxpay": 7864,
      "ĠSeries": 7865,
      "ERE": 7866,
      "Ġalongside": 7867,
      "Ġballs": 7868,
      "Ġcoupon": 7869,
      "ĠBroad": 7870,
      "Ġinvolving": 7871,
      "Ġcombine": 7872,
      "Ġpolitics": 7873,
      "Ġchancel": 7874,
      "Ġengagement": 7875,
      "Ġmissiles": 7876,
      "ĠQuest": 7877,
      "Ġpaint": 7878,
      "Ġoriginally": 7879,
      "Ġtremend": 7880,
      "Ġprofessor": 7881,
      "aughters": 7882,
      "Ġemployers": 7883,
      "Ġemployee": 7884,
      "Ġfunds": 7885,
      "ĠDavis": 7886,
      "ĠAfghan": 7887,
      "ĠArchives": 7888,
      "ĠEdition": 7889,
      "Ġcausing": 7890,
      "Ġstronger": 7891,
      "olicy": 7892,
      "ubscribe": 7893,
      "ĠSupport": 7894,
      "ĠNeal": 7895,
      "Ġcraft": 7896,
      "Ġrecognizes": 7897,
      "Ġrestriction": 7898,
      "Ġfalling": 7899,
      "remony": 7900,
      "Ġlogic": 7901,
      "Ġreplaced": 7902,
      "Ġcircuit": 7903,
      "ĠAgency": 7904,
      "ĠMarket": 7905,
      "Ġmagical": 7906,
      "Ġenterpr": 7907,
      "Ġseparated": 7908,
      "Ġcounsel": 7909,
      "Ġcalc": 7910,
      "Ġdepending": 7911,
      "ĠKeep": 7912,
      "Ġdeadline": 7913,
      "Ġpriority": 7914,
      "ĠCaputo": 7915,
      "ĠMini": 7916,
      "Ġessential": 7917,
      "Ġinmate": 7918,
      "Ġdestination": 7919,
      "Ġfellow": 7920,
      "Ġliked": 7921,
      "ĠEveryone": 7922,
      "ĠIsraeli": 7923,
      "Ġpersu": 7924,
      "ĠBraves": 7925,
      "Ġintroduced": 7926,
      "Ġlucky": 7927,
      "ĠPete": 7928,
      "Ġsleeping": 7929,
      "ĠPlayer": 7930,
      "Ġphysicians": 7931,
      "ĠRadio": 7932,
      "Ġaccuracy": 7933,
      "Ġmanufacturer": 7934,
      "Ġtackle": 7935,
      "Ġneighborhoods": 7936,
      "Ġaspects": 7937,
      "ĠHuman": 7938,
      "ĠLuongo": 7939,
      "handed": 7940,
      "Ġcrock": 7941,
      "Ġliberal": 7942,
      "ĠPacific": 7943,
      "Ġshooting": 7944,
      "Ġdiagnosis": 7945,
      "Ġprocedures": 7946,
      "ĠHotel": 7947,
      "Ġelectricity": 7948,
      "Ġbacteria": 7949,
      "oloft": 7950,
      "Ġjacket": 7951,
      "Ġinnovative": 7952,
      "ĠCreated": 7953,
      "ĠJohann": 7954,
      "uilding": 7955,
      "ĠElizabeth": 7956,
      "Ġboost": 7957,
      "Ġmicrowave": 7958,
      "Ġoccasionally": 7959,
      "ĠGambia": 7960,
      "Ġsnapshot": 7961,
      "Ġacknowled": 7962,
      "Ġingred": 7963,
      "ĠNHL": 7964,
      "Ġlinebacker": 7965,
      "ĠHospital": 7966,
      "Ġlifestyle": 7967,
      "Second": 7968,
      "rochord": 7969,
      "Ġexplanation": 7970,
      "Ġfiscal": 7971,
      "Ġcoffee": 7972,
      "-)": 7973,
      "71": 7974,
      "Comm": 7975,
      "Direct": 7976,
      "David": 7977,
      "EO": 7978,
      "Fi": 7979,
      "Finally": 7980,
      "Hot": 7981,
      "LY": 7982,
      "March": 7983,
      "Pe": 7984,
      "Per": 7985,
      "Qu": 7986,
      "Sp": 7987,
      "Up": 7988,
      "bb": 7989,
      "case": 7990,
      "cious": 7991,
      "figer": 7992,
      "ga": 7993,
      "gain": 7994,
      "gage": 7995,
      "game": 7996,
      "ko": 7997,
      "mo": 7998,
      "met": 7999,
      "pox": 8000,
      "td": 8001,
      "vular": 8002,
      "water": 8003,
      "xico": 8004,
      "ya": 8005,
      "Ġtur": 8006,
      "Ġtact": 8007,
      "Ġtang": 8008,
      "Ġtune": 8009,
      "Ġtournament": 8010,
      "inced": 8011,
      "onn": 8012,
      "Ġsoup": 8013,
      "Ġsorts": 8014,
      "Ġwake": 8015,
      "Ġcow": 8016,
      "Ġcats": 8017,
      "Ġcabin": 8018,
      "itis": 8019,
      "iture": 8020,
      "Ġbub": 8021,
      "Ġbreed": 8022,
      "Ġbanks": 8023,
      "Ġfallen": 8024,
      "Ġpanc": 8025,
      "Ġpics": 8026,
      "Ġphen": 8027,
      "Ġpants": 8028,
      "ede": 8029,
      "aning": 8030,
      "Ġmuseum": 8031,
      "arian": 8032,
      "Ġinev": 8033,
      "Ġhole": 8034,
      "Ġthread": 8035,
      "iciet": 8036,
      "Ġliqu": 8037,
      "Ġloose": 8038,
      "Ġlady": 8039,
      "star": 8040,
      "enth": 8041,
      "ĠIV": 8042,
      "ĠIce": 8043,
      "Ġgent": 8044,
      "Ġgap": 8045,
      "ĠSweet": 8046,
      "ĠSackets": 8047,
      "ĠSyracuse": 8048,
      "ĠTol": 8049,
      "ĠTouch": 8050,
      "aya": 8051,
      "idal": 8052,
      "ĠAge": 8053,
      "ĠABC": 8054,
      "ĠCall": 8055,
      "ĠCra": 8056,
      "ĠCry": 8057,
      "ĠCond": 8058,
      "adu": 8059,
      "aming": 8060,
      "amber": 8061,
      "amental": 8062,
      "uris": 8063,
      "igure": 8064,
      "Ġstocks": 8065,
      "ĠMer": 8066,
      "ĠMom": 8067,
      "char": 8068,
      "ĠBout": 8069,
      "ĠBark": 8070,
      "ĠPap": 8071,
      "ĠPDF": 8072,
      "Ġassemb": 8073,
      "ĠWay": 8074,
      "ĠWife": 8075,
      "ĠWIN": 8076,
      "ĠWright": 8077,
      "oooo": 8078,
      "ĠHing": 8079,
      "ĠHun": 8080,
      "ĠFar": 8081,
      "ĠFinally": 8082,
      "Ġruff": 8083,
      "Ġrising": 8084,
      "Ġrural": 8085,
      "Ġconvert": 8086,
      "Ġdeem": 8087,
      "usal": 8088,
      "abri": 8089,
      "istan": 8090,
      "istry": 8091,
      "Ġvoc": 8092,
      "ĠNO": 8093,
      "ĠLin": 8094,
      "ĠLind": 8095,
      "ĠLuc": 8096,
      "ĠGiven": 8097,
      "ĠGaylord": 8098,
      "Ġexternal": 8099,
      "Ġexhaust": 8100,
      "Ġchances": 8101,
      "eline": 8102,
      "oute": 8103,
      "ĠJake": 8104,
      "ĠJason": 8105,
      "ortic": 8106,
      "ĠEffect": 8107,
      "ĠEstate": 8108,
      "osystem": 8109,
      "Ġsharp": 8110,
      "allas": 8111,
      "ĠOx": 8112,
      "Ġjoint": 8113,
      "ĠâĢĿ": 8114,
      "ivated": 8115,
      "Ġoutd": 8116,
      "Ġoutstanding": 8117,
      "fection": 8118,
      "ogether": 8119,
      "ĠThree": 8120,
      "ĠStill": 8121,
      "iped": 8122,
      "Ġenforce": 8123,
      "Ġyearly": 8124,
      "Ġcontribute": 8125,
      "Ġcontemporary": 8126,
      "Ġmanner": 8127,
      "Ġaggreg": 8128,
      "ĠKim": 8129,
      "Ġunex": 8130,
      "ĠItalian": 8131,
      "Ġspots": 8132,
      "ava": 8133,
      "Ġovernight": 8134,
      "Ġscream": 8135,
      "Ġrecording": 8136,
      "Ġpepper": 8137,
      "ĠVideo": 8138,
      "olds": 8139,
      "Ġthrilled": 8140,
      "Ġbugs": 8141,
      "Ġreput": 8142,
      "Ġdesper": 8143,
      "Ġdescription": 8144,
      "Ġempty": 8145,
      "Ġenth": 8146,
      "Ġrelax": 8147,
      "ocking": 8148,
      "ools": 8149,
      "Ġremained": 8150,
      "Ġevident": 8151,
      "Ġattic": 8152,
      "Ġ64": 8153,
      "Ġreturning": 8154,
      "Ġmonu": 8155,
      "Ġserves": 8156,
      "Ġfunctions": 8157,
      "Ġrestraint": 8158,
      "ĠForce": 8159,
      "Ġfoundation": 8160,
      "Ġsurgery": 8161,
      "Ġcrew": 8162,
      "Ġtransition": 8163,
      "Ġmoder": 8164,
      "Ġheadlines": 8165,
      "âĢ¦.": 8166,
      "âĢ¦]": 8167,
      "Ġpatent": 8168,
      "Ġglac": 8169,
      "Ġlineup": 8170,
      "Ġcruc": 8171,
      "ussion": 8172,
      "Ġextract": 8173,
      "Ġblogs": 8174,
      "Ġbloggers": 8175,
      "Ġhealthcare": 8176,
      "ĠOrder": 8177,
      "Ġ[âĢ¦]": 8178,
      "Ġmonthly": 8179,
      "Ġsurely": 8180,
      "Ġmaintenance": 8181,
      "Ġdrivers": 8182,
      "Ġintens": 8183,
      "ĠZoloft": 8184,
      "Ġpastor": 8185,
      "Ġlandsc": 8186,
      "Ġdemands": 8187,
      "Ġdrawn": 8188,
      "Ġtechnique": 8189,
      "Ġtechnologies": 8190,
      "Ġconfused": 8191,
      "Ġconfront": 8192,
      "ĠAppeal": 8193,
      "Ġconcert": 8194,
      "Ġoccurs": 8195,
      "Ġdelight": 8196,
      "Ġtrading": 8197,
      "Ġcompete": 8198,
      "Ġinvolves": 8199,
      "ĠReserve": 8200,
      "Ġofficers": 8201,
      "Ġwarheads": 8202,
      "Ġversat": 8203,
      "Ġtrees": 8204,
      "Ġsnakes": 8205,
      "Ġpolicymakers": 8206,
      "Ġretailer": 8207,
      "Ġpitches": 8208,
      "ĠArchitect": 8209,
      "Ġimmigrants": 8210,
      "Ġbreakfast": 8211,
      "ĠMcC": 8212,
      "Ġcommentary": 8213,
      "ĠNext": 8214,
      "Ġrecognition": 8215,
      "Ġlinked": 8216,
      "Ġconnections": 8217,
      "Ġregarded": 8218,
      "Ġdeclar": 8219,
      "Ġclicking": 8220,
      "Ġcollected": 8221,
      "Ġcouncil": 8222,
      "limited": 8223,
      "ĠRoberts": 8224,
      "Ġdepends": 8225,
      "ĠUsing": 8226,
      "Ġarguments": 8227,
      "Ġsexual": 8228,
      "Ġpanel": 8229,
      "ĠJean": 8230,
      "ĠStudents": 8231,
      "Ġcommunicate": 8232,
      "Ġcommunications": 8233,
      "ĠKorea": 8234,
      "Ġrenov": 8235,
      "ĠPrize": 8236,
      "Before": 8237,
      "venth": 8238,
      "Ġboat": 8239,
      "Ġproducing": 8240,
      "Ġacquired": 8241,
      "ĠBritain": 8242,
      "Ġlanguages": 8243,
      "Ġthrowing": 8244,
      "Ġticket": 8245,
      "Ġownership": 8246,
      "Ġinstitutions": 8247,
      "Ġassessment": 8248,
      "Ġawareness": 8249,
      "Ġvirus": 8250,
      "Ġlicense": 8251,
      "ĠDemocratic": 8252,
      "Ġfinger": 8253,
      "Ġthousand": 8254,
      "ĠLearn": 8255,
      "Ġcategory": 8256,
      "Ġcategories": 8257,
      "ĠMassachusetts": 8258,
      "iatric": 8259,
      "ĠAltima": 8260,
      "Ġentertainment": 8261,
      "Ġvendors": 8262,
      "Ġveteran": 8263,
      "Ġveterans": 8264,
      "Maybe": 8265,
      "Ġecosystem": 8266,
      "Ġvillage": 8267,
      "ĠDivision": 8268,
      "Ġprinciples": 8269,
      "ĠTurkish": 8270,
      "ĠSilver": 8271,
      "ĠAlderman": 8272,
      "ĠGregory": 8273,
      "ĠICBM": 8274,
      "Ġrapid": 8275,
      "ĠRoyal": 8276,
      "Ġintelligence": 8277,
      "Ġretirement": 8278,
      "relevant": 8279,
      "Ġbuttons": 8280,
      "Ġprofessionals": 8281,
      "Ġnewsletter": 8282,
      "Ġwitness": 8283,
      "ĠCASIS": 8284,
      "Ġcomprehens": 8285,
      "owboys": 8286,
      "Ġstimul": 8287,
      "Ġsavings": 8288,
      "ĠPrinceton": 8289,
      "Ġagonists": 8290,
      "ĠVietnam": 8291,
      "Because": 8292,
      "ĠDisease": 8293,
      "rochordus": 8294,
      "icietur": 8295,
      "07": 8296,
      "87": 8297,
      "BRU": 8298,
      "CO": 8299,
      "CT": 8300,
      "Car": 8301,
      "Cons": 8302,
      "DD": 8303,
      "ICE": 8304,
      "Japan": 8305,
      "NER": 8306,
      "Pol": 8307,
      "Red": 8308,
      "Rich": 8309,
      "SA": 8310,
      "Take": 8311,
      "Use": 8312,
      "aire": 8313,
      "cest": 8314,
      "cue": 8315,
      "def": 8316,
      "equ": 8317,
      "hil": 8318,
      "js": 8319,
      "law": 8320,
      "lany": 8321,
      "mers": 8322,
      "oks": 8323,
      "overs": 8324,
      "ped": 8325,
      "ran": 8326,
      "rant": 8327,
      "ship": 8328,
      "vy": 8329,
      "wear": 8330,
      "zer": 8331,
      "Ã¡": 8332,
      "Ġtor": 8333,
      "Ġtou": 8334,
      "Ġtab": 8335,
      "Ġtort": 8336,
      "Ġtied": 8337,
      "Ġtank": 8338,
      "het": 8339,
      "including": 8340,
      "onto": 8341,
      "Ġslic": 8342,
      "Ġsoul": 8343,
      "Ġsorry": 8344,
      "Ġwishes": 8345,
      "atible": 8346,
      "isen": 8347,
      "Ġben": 8348,
      "Ġbarn": 8349,
      "orne": 8350,
      "orious": 8351,
      "esy": 8352,
      "essee": 8353,
      "Ġpor": 8354,
      "anic": 8355,
      "arth": 8356,
      "alink": 8357,
      "Ġincomp": 8358,
      "Ġhorses": 8359,
      "Ġdad": 8360,
      "Ġdiversity": 8361,
      "Ġdopamine": 8362,
      "leton": 8363,
      "Ġlos": 8364,
      "Ġloud": 8365,
      "storm": 8366,
      "ĠIS": 8367,
      "ĠIow": 8368,
      "Ġgut": 8369,
      "Ġgig": 8370,
      "Ġgul": 8371,
      "Ġgolf": 8372,
      "rotic": 8373,
      "lymp": 8374,
      "uters": 8375,
      "otte": 8376,
      "otton": 8377,
      "Ġye": 8378,
      "ĠSure": 8379,
      "ĠTalk": 8380,
      "ĠTony": 8381,
      "ĠTommy": 8382,
      "Ġongoing": 8383,
      "owell": 8384,
      "Ġforth": 8385,
      "Ġforum": 8386,
      "Ġforgot": 8387,
      "ĠCore": 8388,
      "adise": 8389,
      "igious": 8390,
      "verted": 8391,
      "ila": 8392,
      "ilit": 8393,
      "olve": 8394,
      "Ġstake": 8395,
      "Ġstations": 8396,
      "Ġstunning": 8397,
      "Ġstreets": 8398,
      "irk": 8399,
      "irts": 8400,
      "ĠBa": 8401,
      "ĠBoo": 8402,
      "ĠBry": 8403,
      "ĠBuc": 8404,
      "ĠBru": 8405,
      "ĠBenef": 8406,
      "Ġange": 8407,
      "Ġanime": 8408,
      "ĠPo": 8409,
      "ĠPitt": 8410,
      "ĠPosted": 8411,
      "ĠPolicy": 8412,
      "Ġaside": 8413,
      "ĠWade": 8414,
      "ĠWrit": 8415,
      "ĠWelcome": 8416,
      "ĠHab": 8417,
      "ĠHud": 8418,
      "ĠFun": 8419,
      "ĠForm": 8420,
      "Ġrush": 8421,
      "ĠDw": 8422,
      "Ġconce": 8423,
      "ĠRB": 8424,
      "ĠRome": 8425,
      "ĠRod": 8426,
      "ĠRandy": 8427,
      "ula": 8428,
      "abus": 8429,
      "ainable": 8430,
      "Ġvest": 8431,
      "ĠNic": 8432,
      "ĠNAS": 8433,
      "ĠNorthern": 8434,
      "ĠLim": 8435,
      "ĠList": 8436,
      "Ġsuffe": 8437,
      "Ġsuicide": 8438,
      "Ġnotion": 8439,
      "quis": 8440,
      "Ġexceed": 8441,
      "Ġchor": 8442,
      "Ġchopped": 8443,
      "elve": 8444,
      "ĠED": 8445,
      "ĠEM": 8446,
      "ĠEX": 8447,
      "ĠEqu": 8448,
      "Ġshirt": 8449,
      "Ġshorter": 8450,
      "allow": 8451,
      "ĠOffic": 8452,
      "Ġcancer": 8453,
      "Ġlect": 8454,
      "Ġlegend": 8455,
      "Ġplag": 8456,
      "aks": 8457,
      "redict": 8458,
      "Ġoutfield": 8459,
      "Ġupload": 8460,
      "Ġtrick": 8461,
      "Ġtrump": 8462,
      "ogy": 8463,
      "ogen": 8464,
      "inding": 8465,
      "Ġclar": 8466,
      "Ġimper": 8467,
      "Ġenh": 8468,
      "Ġenable": 8469,
      "ĠInf": 8470,
      "Ġcontained": 8471,
      "ĠChange": 8472,
      "ĠChair": 8473,
      "Ġknife": 8474,
      "ĠKelly": 8475,
      "Ġjustice": 8476,
      "Ġuna": 8477,
      "Ġappet": 8478,
      "Ġwhenever": 8479,
      "ordon": 8480,
      "obby": 8481,
      "Ġscared": 8482,
      "Ġscoop": 8483,
      "ĠVA": 8484,
      "Ġpreced": 8485,
      "Ġprepar": 8486,
      "nell": 8487,
      "erves": 8488,
      "Ġroast": 8489,
      "Ġrook": 8490,
      "Ġplayoffs": 8491,
      "Ġ58": 8492,
      "ĠReid": 8493,
      "Ġinvite": 8494,
      "Ġentering": 8495,
      "ĠDegus": 8496,
      "Ġremem": 8497,
      "Ġremark": 8498,
      "Ġremote": 8499,
      "ĠUnfortunately": 8500,
      "aley": 8501,
      "ributes": 8502,
      "Ġattorney": 8503,
      "Ġfinds": 8504,
      "Ġarts": 8505,
      "Ġchest": 8506,
      "Ġmonastery": 8507,
      "vernote": 8508,
      "Ġsubmitted": 8509,
      "Ġ75": 8510,
      "ĠProduct": 8511,
      "ĠProtest": 8512,
      "Ġhandful": 8513,
      "Ġdiscount": 8514,
      "Ġdefine": 8515,
      "Ġfounder": 8516,
      "Ġcharges": 8517,
      "Ġsignature": 8518,
      "minute": 8519,
      "Ġwins": 8520,
      "rett": 8521,
      "ĠTherefore": 8522,
      "Ġparticle": 8523,
      "ĠAdobe": 8524,
      "Ġsupports": 8525,
      "Ġterrit": 8526,
      "Ġterror": 8527,
      "Ġcriminal": 8528,
      "Ġadvis": 8529,
      "Ġadvanced": 8530,
      "ĠQR": 8531,
      "Ġfriendly": 8532,
      "Ġ150": 8533,
      "Ġharder": 8534,
      "Ġhardly": 8535,
      "otted": 8536,
      "Ġskirt": 8537,
      "Ġprofiles": 8538,
      "Ġopposition": 8539,
      "porarily": 8540,
      "Ġdrum": 8541,
      "Ġinvestigation": 8542,
      "ĠCoal": 8543,
      "iques": 8544,
      "Ġequally": 8545,
      "Ġnearby": 8546,
      "ERS": 8547,
      "incol": 8548,
      "Ġballistic": 8549,
      "Ġtrades": 8550,
      "Ġdepression": 8551,
      "Ġpurchas": 8552,
      "Ġhitter": 8553,
      "ĠIndepend": 8554,
      "Ġpotentially": 8555,
      "Ġvaccination": 8556,
      "Ġpersonalized": 8557,
      "Ġcutting": 8558,
      "Ġengage": 8559,
      "Ġcreates": 8560,
      "Ġreleases": 8561,
      "ĠAbb": 8562,
      "Ġchallenged": 8563,
      "opping": 8564,
      "prof": 8565,
      "Ġholds": 8566,
      "Ġofficer": 8567,
      "Ġceiling": 8568,
      "Ġaccessories": 8569,
      "ĠJustin": 8570,
      "Ġtrends": 8571,
      "Ġsnow": 8572,
      "Ġhotels": 8573,
      "Ġlayers": 8574,
      "Ġdebut": 8575,
      "ATE": 8576,
      "Ġagenda": 8577,
      "ĠMcL": 8578,
      "Ġcampaigns": 8579,
      "Ġcommenting": 8580,
      "ivalent": 8581,
      "ĠPeace": 8582,
      "ourage": 8583,
      "Ġabsence": 8584,
      "Ġcolorful": 8585,
      "Ġselections": 8586,
      "Ġconstitution": 8587,
      "Ġwindows": 8588,
      "screen": 8589,
      "Ġdefinition": 8590,
      "ĠSwift": 8591,
      "ĠYears": 8592,
      "Ġmanufacturing": 8593,
      "Ġmixed": 8594,
      "Ġreligion": 8595,
      "Ġintegration": 8596,
      "Ġintegrated": 8597,
      "Ġprotecting": 8598,
      "Ġcups": 8599,
      "Ġstarring": 8600,
      "Ġscheduled": 8601,
      "Ġdemanding": 8602,
      "Ġassumed": 8603,
      "Ġrecommended": 8604,
      "Ġrecommendations": 8605,
      "Ġjournalists": 8606,
      "Ġgarlic": 8607,
      "ĠModel": 8608,
      "Ġdrugs": 8609,
      "Ġwaters": 8610,
      "Ġdollar": 8611,
      "Ġdrylands": 8612,
      "Ġchampion": 8613,
      "Ġhonestly": 8614,
      "Click": 8615,
      "Ġchapter": 8616,
      "ĠIdaho": 8617,
      "ĠREAD": 8618,
      "Ġindicate": 8619,
      "Ġpermission": 8620,
      "Ġmistake": 8621,
      "Ġrental": 8622,
      "Ġinstitution": 8623,
      "Ġcells": 8624,
      "Ġmerit": 8625,
      "Ġmerch": 8626,
      "Art": 8627,
      "News": 8628,
      "Ġbroadcast": 8629,
      "ĠBreast": 8630,
      "Ġhanging": 8631,
      "Ġstrategies": 8632,
      "Ġcandidate": 8633,
      "ĠHistor": 8634,
      "Ġbelonging": 8635,
      "Ġroughly": 8636,
      "market": 8637,
      "ĠToronto": 8638,
      "Ġappointed": 8639,
      "Ġweapon": 8640,
      "ĠBrandon": 8641,
      "Ġbreath": 8642,
      "ĠQueen": 8643,
      "ĠQueens": 8644,
      "IGH": 8645,
      "Ġbreaking": 8646,
      "ĠHTML": 8647,
      "Ġresolve": 8648,
      "ĠHelp": 8649,
      "ĠHiggs": 8650,
      "Ġconcluded": 8651,
      "ĠYankees": 8652,
      "ĠSharePoint": 8653,
      "imedia": 8654,
      "ĠBulld": 8655,
      "Ġguarantee": 8656,
      "Ġpublishing": 8657,
      "ĠSystems": 8658,
      "Ġsplit": 8659,
      "ĠSingapore": 8660,
      "ĠHilfiger": 8661,
      "Ġphotographer": 8662,
      "Ġzombie": 8663,
      "Ġdeployed": 8664,
      "Ġbarely": 8665,
      "ĠTennessee": 8666,
      "Ġhelicopter": 8667,
      "ĠHayes": 8668,
      "Ġheavily": 8669,
      "ĠRussell": 8670,
      "Ġphilosoph": 8671,
      "Ġexpansion": 8672,
      "ĠSpanish": 8673,
      "ĠImpact": 8674,
      "Ġmolec": 8675,
      "ĠBengal": 8676,
      "ĠStewart": 8677,
      "ĠMarlins": 8678,
      "Ġtremendous": 8679,
      "ĠHingley": 8680,
      "%.": 8681,
      "52": 8682,
      "76": 8683,
      "85": 8684,
      "Both": 8685,
      "Cur": 8686,
      "During": 8687,
      "EF": 8688,
      "Ge": 8689,
      "Good": 8690,
      "Gardner": 8691,
      "Hi": 8692,
      "LL": 8693,
      "Men": 8694,
      "Need": 8695,
      "Out": 8696,
      "PM": 8697,
      "UI": 8698,
      "View": 8699,
      "ao": 8700,
      "bu": 8701,
      "break": 8702,
      "cery": 8703,
      "dep": 8704,
      "een": 8705,
      "fly": 8706,
      "fty": 8707,
      "gic": 8708,
      "host": 8709,
      "iency": 8710,
      "iability": 8711,
      "ml": 8712,
      "mart": 8713,
      "normal": 8714,
      "oate": 8715,
      "py": 8716,
      "power": 8717,
      "run": 8718,
      "rand": 8719,
      "such": 8720,
      "sbury": 8721,
      "ui": 8722,
      "uine": 8723,
      "vin": 8724,
      "via": 8725,
      "xual": 8726,
      "zheimer": 8727,
      "ì§": 8728,
      "Ġic": 8729,
      "Ġtone": 8730,
      "Ġtribe": 8731,
      "inth": 8732,
      "Ġsin": 8733,
      "Ġsan": 8734,
      "Ġsab": 8735,
      "Ġsight": 8736,
      "Ġwid": 8737,
      "Ġwave": 8738,
      "Ġwider": 8739,
      "athered": 8740,
      "Ġocean": 8741,
      "Ġolive": 8742,
      "ndrome": 8743,
      "itro": 8744,
      "itage": 8745,
      "ishers": 8746,
      "Ġbits": 8747,
      "Ġbars": 8748,
      "Ġborrow": 8749,
      "oration": 8750,
      "ena": 8751,
      "enger": 8752,
      "oub": 8753,
      "esame": 8754,
      "Ġfet": 8755,
      "Ġfir": 8756,
      "Ġfreak": 8757,
      "Ġfilling": 8758,
      "anadu": 8759,
      "Ġmo": 8760,
      "Ġmount": 8761,
      "Ġmouse": 8762,
      "Ġmaker": 8763,
      "Ġmerc": 8764,
      "aron": 8765,
      "arters": 8766,
      "Ġinverse": 8767,
      "Ġdin": 8768,
      "Ġdil": 8769,
      "Ġdimin": 8770,
      "Ġduct": 8771,
      "Ġdirty": 8772,
      "Ġthunder": 8773,
      "leans": 8774,
      "omy": 8775,
      "omore": 8776,
      "lls": 8777,
      "Ġlad": 8778,
      "Ġlake": 8779,
      "Ġlists": 8780,
      "strong": 8781,
      "Ġreaction": 8782,
      "ĠIra": 8783,
      "road": 8784,
      "utures": 8785,
      "acle": 8786,
      "acular": 8787,
      "ayer": 8788,
      "etry": 8789,
      "etime": 8790,
      "ĠAz": 8791,
      "owers": 8792,
      "ĠClear": 8793,
      "ĠCowboys": 8794,
      "urd": 8795,
      "iginally": 8796,
      "ols": 8797,
      "Ġstreak": 8798,
      "Ġstarter": 8799,
      "ĠMa": 8800,
      "ĠMov": 8801,
      "ĠMason": 8802,
      "ĠBt": 8803,
      "ĠPad": 8804,
      "ĠPoor": 8805,
      "ĠPAT": 8806,
      "ĠHur": 8807,
      "Ġsees": 8808,
      "Ġseed": 8809,
      "Ġsear": 8810,
      "Ġsemin": 8811,
      "Ġseventh": 8812,
      "ĠFL": 8813,
      "ĠFall": 8814,
      "Ġrail": 8815,
      "ĠDO": 8816,
      "ĠDig": 8817,
      "ĠDisc": 8818,
      "ĠDiamond": 8819,
      "Ġcompe": 8820,
      "ĠRest": 8821,
      "ĠRum": 8822,
      "ĠRHP": 8823,
      "oret": 8824,
      "abet": 8825,
      "Ġvary": 8826,
      "Ġvital": 8827,
      "ĠNum": 8828,
      "ĠNix": 8829,
      "ĠNCI": 8830,
      "ĠNanny": 8831,
      "ĠLink": 8832,
      "ĠLincol": 8833,
      "ĠGive": 8834,
      "ĠGallery": 8835,
      "Ġcharm": 8836,
      "umes": 8837,
      "ĠJane": 8838,
      "ĠJoin": 8839,
      "ortium": 8840,
      "ĠEvent": 8841,
      "ĠEvernote": 8842,
      "ockey": 8843,
      "Ġjourn": 8844,
      "Ġjails": 8845,
      "ardens": 8846,
      "Ġlease": 8847,
      "Ġlets": 8848,
      "Ġdoctors": 8849,
      "ourbon": 8850,
      "aste": 8851,
      "terest": 8852,
      "agine": 8853,
      "agram": 8854,
      "aping": 8855,
      "apol": 8856,
      "Ġmeal": 8857,
      "Ġneither": 8858,
      "ĠUr": 8859,
      "ĠTho": 8860,
      "Ġusage": 8861,
      "Ġadren": 8862,
      "pton": 8863,
      "ptoms": 8864,
      "ĠStat": 8865,
      "ĠStan": 8866,
      "ĠStart": 8867,
      "berg": 8868,
      "ailing": 8869,
      "Ġquilt": 8870,
      "Ġcompared": 8871,
      "Ġcomposed": 8872,
      "ĠInn": 8873,
      "ĠChallen": 8874,
      "aryl": 8875,
      "Ġperch": 8876,
      "Ġhadn": 8877,
      "ĠKind": 8878,
      "owner": 8879,
      "Ġunb": 8880,
      "Ġresort": 8881,
      "Ġ32": 8882,
      "Ġ33": 8883,
      "Ġdispl": 8884,
      "ignment": 8885,
      "aval": 8886,
      "ĠHead": 8887,
      "ĠHeart": 8888,
      "orders": 8889,
      "Ġscript": 8890,
      "Ġshed": 8891,
      "Ġsheet": 8892,
      "ishment": 8893,
      "Ġroles": 8894,
      "Ġgrounds": 8895,
      "oves": 8896,
      "Ġ42": 8897,
      "angh": 8898,
      "group": 8899,
      "Ġbacks": 8900,
      "Ġcommands": 8901,
      "Ġdonation": 8902,
      "Ġconservation": 8903,
      "Ġbug": 8904,
      "Ġregime": 8905,
      "lections": 8906,
      "Ġguild": 8907,
      "Ġrelate": 8908,
      "Ġrelative": 8909,
      "manager": 8910,
      "ĠiOS": 8911,
      "Ġproved": 8912,
      "Ġevolution": 8913,
      "gged": 8914,
      "ĠCommercial": 8915,
      "ĠAlzheimer": 8916,
      "Ġinstance": 8917,
      "Ġcounts": 8918,
      "Ġinterference": 8919,
      "Ġfewer": 8920,
      "Ġsubtle": 8921,
      "views": 8922,
      "they": 8923,
      "there": 8924,
      "ĠForum": 8925,
      "Ġstring": 8926,
      "Ġcurriculum": 8927,
      "ĠClin": 8928,
      "Ġ85": 8929,
      "Ġmarked": 8930,
      "Ġheads": 8931,
      "Ġpasses": 8932,
      "Ġobst": 8933,
      "Ġterr": 8934,
      "Ġtermin": 8935,
      "Ġterrible": 8936,
      "ĠLeaders": 8937,
      "Ġconstruct": 8938,
      "ĠOrleans": 8939,
      "Ġapproaches": 8940,
      "Ġvaluable": 8941,
      "Ġvalvular": 8942,
      "Ġprize": 8943,
      "Ġanniversary": 8944,
      "Ġ05": 8945,
      "Ġ06": 8946,
      "Ġ09": 8947,
      "ĠTrust": 8948,
      "Ġformal": 8949,
      "Ġvisual": 8950,
      "Ġorganis": 8951,
      "Ġpercentage": 8952,
      "Ġrefund": 8953,
      "appa": 8954,
      "Ġconfirm": 8955,
      "Ġinvestments": 8956,
      "Ġlegit": 8957,
      "Ġesp": 8958,
      "Ġprominent": 8959,
      "Ġequity": 8960,
      "ĠSpot": 8961,
      "ĠConnect": 8962,
      "Ġlighting": 8963,
      "Ġanimabus": 8964,
      "white": 8965,
      "Ġtradem": 8966,
      "ĠCentre": 8967,
      "Ġveget": 8968,
      "ĠIndust": 8969,
      "Ġcombat": 8970,
      "Ġprotein": 8971,
      "ĠReport": 8972,
      "Ġcreatures": 8973,
      "Ġaddressed": 8974,
      "Ġreturns": 8975,
      "Ġceremony": 8976,
      "Ġpropicietur": 8977,
      "Ġauthorities": 8978,
      "Ġinternal": 8979,
      "Ġagreements": 8980,
      "Ġencoun": 8981,
      "Ġfailing": 8982,
      "ĠSmart": 8983,
      "ĠSmall": 8984,
      "Ġstaying": 8985,
      "ĠEditor": 8986,
      "ĠEngine": 8987,
      "Ġprivile": 8988,
      "ĠPerfect": 8989,
      "Ġfairy": 8990,
      "Ġaffili": 8991,
      "Ġstops": 8992,
      "Ġerrors": 8993,
      "Ġ1975": 8994,
      "Ġ1976": 8995,
      "Ġconvinced": 8996,
      "ĠÂ©": 8997,
      "Ġ:-)": 8998,
      "Ġauto": 8999,
      "Ġsustained": 9000,
      "ĠOffensive": 9001,
      "ĠSciences": 9002,
      "Ġdeclined": 9003,
      "Ġcollecting": 9004,
      "Ġcollections": 9005,
      "Ġfunctionality": 9006,
      "Ġvolume": 9007,
      "Ġcelebration": 9008,
      "Ġpraying": 9009,
      "Ġhorror": 9010,
      "Ġinjured": 9011,
      "ĠPolit": 9012,
      "Ġwarmth": 9013,
      "Ġfemin": 9014,
      "ĠCapital": 9015,
      "Ġexplains": 9016,
      "Ġexplained": 9017,
      "Ġscores": 9018,
      "Ġcovering": 9019,
      "Ġindependence": 9020,
      "ĠAirport": 9021,
      "Ġrestaurants": 9022,
      "ĠPrior": 9023,
      "Ġtargeted": 9024,
      "eroids": 9025,
      "ĠArea": 9026,
      "Ġproduces": 9027,
      "Ġsettings": 9028,
      "Ġtraveling": 9029,
      "Ġimplemented": 9030,
      "Ġstruggle": 9031,
      "Ġstruggling": 9032,
      "ĠMagazine": 9033,
      "Ġapplies": 9034,
      "Ġsuffer": 9035,
      "Ġcitizen": 9036,
      "ĠMorris": 9037,
      "Ġpremie": 9038,
      "Ġmistakes": 9039,
      "ĠOthers": 9040,
      "Ġfabulous": 9041,
      "Ġphysician": 9042,
      "Ġcollaboration": 9043,
      "ĠALCM": 9044,
      "ordinary": 9045,
      "Ġhighlights": 9046,
      "Ġdemonstrate": 9047,
      "Ġuncertain": 9048,
      "Ġregistered": 9049,
      "ĠAtlantic": 9050,
      "Ġcapture": 9051,
      "Ġpitching": 9052,
      "CHY": 9053,
      "Ġrubber": 9054,
      "ĠTravel": 9055,
      "Ġappointment": 9056,
      "Ġracial": 9057,
      "Key": 9058,
      "aspoon": 9059,
      "Ġthickness": 9060,
      "Ġprocedure": 9061,
      "ĠChampions": 9062,
      "Ġbattery": 9063,
      "ĠRussian": 9064,
      "Ġadvertising": 9065,
      "Ġdetailed": 9066,
      "Ġokay": 9067,
      "Ġharvest": 9068,
      "ĠStandard": 9069,
      "Ġrepeated": 9070,
      "Ġrumors": 9071,
      "ĠDodson": 9072,
      "ĠPhotos": 9073,
      "ĠBurke": 9074,
      "ĠKennedy": 9075,
      "ĠJudge": 9076,
      "Ġrotation": 9077,
      "Ġadventure": 9078,
      "Ġpublisher": 9079,
      "Ġintellectual": 9080,
      "Ġallegations": 9081,
      "ĠDreams": 9082,
      "Ġspokes": 9083,
      "Ġphotographs": 9084,
      "ĠAstros": 9085,
      "Ġrecruiting": 9086,
      "alaxy": 9087,
      "ĠBOCHY": 9088,
      "ĠIntegr": 9089,
      "xygen": 9090,
      "Ġridiculous": 9091,
      "ioneer": 9092,
      "Ġyogurt": 9093,
      "ĠRonaldinho": 9094,
      "quiry": 9095,
      "September": 9096,
      "Photo": 9097,
      "Ġingredients": 9098,
      "Ġphenomen": 9099,
      "Ġgentle": 9100,
      "Ġcomprehensive": 9101,
      "BRUCE": 9102,
      "ĠIowa": 9103,
      "Ġsuffered": 9104,
      "ĠIraq": 9105,
      "Ġjournals": 9106,
      "Ġadrenal": 9107,
      "\").": 9108,
      ".-": 9109,
      "300": 9110,
      "AG": 9111,
      "Auburn": 9112,
      "BS": 9113,
      "CS": 9114,
      "Cal": 9115,
      "Copyright": 9116,
      "Daughter": 9117,
      "Donald": 9118,
      "Er": 9119,
      "Eng": 9120,
      "FT": 9121,
      "Her": 9122,
      "Home": 9123,
      "II": 9124,
      "IM": 9125,
      "Im": 9126,
      "Int": 9127,
      "Jesus": 9128,
      "Looking": 9129,
      "Man": 9130,
      "Mate": 9131,
      "Mich": 9132,
      "NN": 9133,
      "OC": 9134,
      "Open": 9135,
      "PG": 9136,
      "Pre": 9137,
      "Res": 9138,
      "Rel": 9139,
      "Rep": 9140,
      "Two": 9141,
      "Us": 9142,
      "VAN": 9143,
      "ait": 9144,
      "ais": 9145,
      "bet": 9146,
      "burn": 9147,
      "cit": 9148,
      "car": 9149,
      "cro": 9150,
      "cos": 9151,
      "fers": 9152,
      "fish": 9153,
      "gun": 9154,
      "gant": 9155,
      "gener": 9156,
      "iens": 9157,
      "iences": 9158,
      "je": 9159,
      "mic": 9160,
      "mod": 9161,
      "non": 9162,
      "nor": 9163,
      "pet": 9164,
      "pass": 9165,
      "rates": 9166,
      "riger": 9167,
      "uan": 9168,
      "uates": 9169,
      "vision": 9170,
      "yed": 9171,
      "your": 9172,
      "zone": 9173,
      "ìĥ": 9174,
      "Ġtall": 9175,
      "Ġtip": 9176,
      "Ġaer": 9177,
      "Ġaim": 9178,
      "Ġaver": 9179,
      "inst": 9180,
      "inter": 9181,
      "inction": 9182,
      "inating": 9183,
      "erning": 9184,
      "Ġsed": 9185,
      "Ġsour": 9186,
      "Ġori": 9187,
      "Ġoxygen": 9188,
      "Ġcoc": 9189,
      "Ġcited": 9190,
      "itches": 9191,
      "isa": 9192,
      "Ġbot": 9193,
      "Ġbases": 9194,
      "ouls": 9195,
      "Ġfits": 9196,
      "Ġfier": 9197,
      "Ġfract": 9198,
      "Ġpine": 9199,
      "anim": 9200,
      "Ġmood": 9201,
      "Ġhat": 9202,
      "Ġhall": 9203,
      "Ġdated": 9204,
      "Ġdrugg": 9205,
      "Ġdancing": 9206,
      "icious": 9207,
      "ician": 9208,
      "leep": 9209,
      "Ġlately": 9210,
      "Ġlunch": 9211,
      "Ġlocked": 9212,
      "step": 9213,
      "Ġnose": 9214,
      "Ġrend": 9215,
      "Ġrely": 9216,
      "Ġreferences": 9217,
      "Ġgall": 9218,
      "Ġgreet": 9219,
      "Ġgained": 9220,
      "Ġgifts": 9221,
      "roit": 9222,
      "Ġbeef": 9223,
      "utt": 9224,
      "utch": 9225,
      "oto": 9226,
      "ĠSV": 9227,
      "ĠSor": 9228,
      "ĠSav": 9229,
      "ĠSquare": 9230,
      "ĠTer": 9231,
      "ĠTib": 9232,
      "idem": 9233,
      "idency": 9234,
      "etics": 9235,
      "ĠAR": 9236,
      "ĠAction": 9237,
      "ĠAgg": 9238,
      "ĠCe": 9239,
      "ĠCEO": 9240,
      "uron": 9241,
      "urse": 9242,
      "igen": 9243,
      "iginal": 9244,
      "Ġstability": 9245,
      "ĠMid": 9246,
      "ĠMoo": 9247,
      "ĠMuch": 9248,
      "ĠMobile": 9249,
      "ĠBun": 9250,
      "ĠBarn": 9251,
      "ĠBuck": 9252,
      "ĠBishop": 9253,
      "illas": 9254,
      "Ġanx": 9255,
      "Ġanonym": 9256,
      "ĠPear": 9257,
      "Ġasp": 9258,
      "ifies": 9259,
      "ĠWag": 9260,
      "ĠWatch": 9261,
      "ĠHD": 9262,
      "ĠHas": 9263,
      "ĠHad": 9264,
      "ĠHIV": 9265,
      "Ġseam": 9266,
      "ĠFem": 9267,
      "ĠFuture": 9268,
      "ĠFaith": 9269,
      "ĠFifth": 9270,
      "Ġrhy": 9271,
      "Ġruling": 9272,
      "ĠDi": 9273,
      "ĠDub": 9274,
      "ĠDark": 9275,
      "ĠDallas": 9276,
      "Ġconj": 9277,
      "Ġconcent": 9278,
      "ĠRam": 9279,
      "ĠRun": 9280,
      "ĠRams": 9281,
      "ĠRights": 9282,
      "ĠRoute": 9283,
      "Ġ($": 9284,
      "ĠTheatre": 9285,
[...]
